#include "magic_wand_model_data.h"

// We need to keep the data array aligned on some architectures.
#ifdef __has_attribute
#define HAVE_ATTRIBUTE(x) __has_attribute(x)
#else
#define HAVE_ATTRIBUTE(x) 0
#endif
#if HAVE_ATTRIBUTE(aligned) || (defined(__GNUC__) && !defined(__clang__))
#define DATA_ALIGN_ATTRIBUTE __attribute__((aligned(4)))
#else
#define DATA_ALIGN_ATTRIBUTE
#endif




const unsigned char g_magic_wand_model_data[] DATA_ALIGN_ATTRIBUTE = {

  0x08, 0x00, 0x00, 0x00, 0x54, 0x46, 0x4c, 0x33, 0x62, 0xff, 0xff, 0xff,
  0x03, 0x00, 0x00, 0x00, 0x10, 0x00, 0x00, 0x00, 0x24, 0x00, 0x00, 0x00,
  0x78, 0x00, 0x00, 0x00, 0x24, 0x00, 0x00, 0x00, 0x05, 0x00, 0x00, 0x00,
  0x78, 0x05, 0x00, 0x00, 0xb0, 0x04, 0x00, 0x00, 0xe0, 0x02, 0x00, 0x00,
  0x60, 0x02, 0x00, 0x00, 0x54, 0x01, 0x00, 0x00, 0x01, 0x00, 0x00, 0x00,
  0x78, 0x00, 0x00, 0x00, 0x13, 0x00, 0x00, 0x00, 0x90, 0x2f, 0x00, 0x00,
  0x8c, 0x2f, 0x00, 0x00, 0x98, 0x2e, 0x00, 0x00, 0x28, 0x2e, 0x00, 0x00,
  0xbc, 0x2d, 0x00, 0x00, 0x6c, 0x11, 0x00, 0x00, 0x98, 0x10, 0x00, 0x00,
  0xbc, 0x0e, 0x00, 0x00, 0x60, 0x06, 0x00, 0x00, 0xfc, 0x05, 0x00, 0x00,
  0x78, 0x05, 0x00, 0x00, 0x64, 0x2f, 0x00, 0x00, 0x60, 0x2f, 0x00, 0x00,
  0x5c, 0x2f, 0x00, 0x00, 0x58, 0x2f, 0x00, 0x00, 0x54, 0x2f, 0x00, 0x00,
  0x50, 0x2f, 0x00, 0x00, 0x4c, 0x2f, 0x00, 0x00, 0x48, 0x2f, 0x00, 0x00,
  0x0f, 0x00, 0x00, 0x00, 0x4d, 0x4c, 0x49, 0x52, 0x20, 0x43, 0x6f, 0x6e,
  0x76, 0x65, 0x72, 0x74, 0x65, 0x64, 0x2e, 0x00, 0x00, 0x00, 0x0e, 0x00,
  0x18, 0x00, 0x04, 0x00, 0x08, 0x00, 0x0c, 0x00, 0x10, 0x00, 0x14, 0x00,
  0x0e, 0x00, 0x00, 0x00, 0x14, 0x00, 0x00, 0x00, 0x5c, 0x00, 0x00, 0x00,
  0x60, 0x00, 0x00, 0x00, 0x64, 0x00, 0x00, 0x00, 0x84, 0x00, 0x00, 0x00,
  0x12, 0x00, 0x00, 0x00, 0xc0, 0x2e, 0x00, 0x00, 0x5c, 0x2e, 0x00, 0x00,
  0xb4, 0x2d, 0x00, 0x00, 0x58, 0x2d, 0x00, 0x00, 0xf0, 0x2c, 0x00, 0x00,
  0x9c, 0x10, 0x00, 0x00, 0xc0, 0x0f, 0x00, 0x00, 0xe4, 0x0d, 0x00, 0x00,
  0xa0, 0x05, 0x00, 0x00, 0x3c, 0x05, 0x00, 0x00, 0xb0, 0x04, 0x00, 0x00,
  0xe8, 0x03, 0x00, 0x00, 0x38, 0x03, 0x00, 0x00, 0xa4, 0x02, 0x00, 0x00,
  0x10, 0x02, 0x00, 0x00, 0x90, 0x01, 0x00, 0x00, 0xfc, 0x00, 0x00, 0x00,
  0x80, 0x00, 0x00, 0x00, 0x01, 0x00, 0x00, 0x00, 0x00, 0x00, 0x00, 0x00,
  0x01, 0x00, 0x00, 0x00, 0x11, 0x00, 0x00, 0x00, 0x08, 0x00, 0x00, 0x00,
  0x1c, 0x04, 0x00, 0x00, 0x58, 0x03, 0x00, 0x00, 0xc8, 0x02, 0x00, 0x00,
  0x24, 0x02, 0x00, 0x00, 0xac, 0x01, 0x00, 0x00, 0x10, 0x01, 0x00, 0x00,
  0x94, 0x00, 0x00, 0x00, 0x10, 0x00, 0x00, 0x00, 0x04, 0x00, 0x00, 0x00,
  0x6d, 0x61, 0x69, 0x6e, 0x00, 0x00, 0x00, 0x00, 0x8e, 0xff, 0xff, 0xff,
  0x00, 0x00, 0x00, 0x09, 0x04, 0x00, 0x00, 0x00, 0x1c, 0x00, 0x00, 0x00,
  0x10, 0x00, 0x00, 0x00, 0x04, 0x00, 0x00, 0x00, 0x92, 0xd2, 0xff, 0xff,
  0x00, 0x00, 0x80, 0x3f, 0x01, 0x00, 0x00, 0x00, 0x11, 0x00, 0x00, 0x00,
  0x01, 0x00, 0x00, 0x00, 0x10, 0x00, 0x00, 0x00, 0xf6, 0xfb, 0xff, 0xff,
  0x00, 0x00, 0x00, 0x19, 0x01, 0x00, 0x00, 0x00, 0x12, 0xd2, 0xff, 0xff,
  0x10, 0x00, 0x00, 0x00, 0x12, 0x00, 0x00, 0x00, 0x14, 0x00, 0x00, 0x00,
  0x20, 0x00, 0x00, 0x00, 0x02, 0x00, 0x00, 0x00, 0x01, 0x00, 0x00, 0x00,
  0x02, 0x00, 0x00, 0x00, 0x08, 0x00, 0x00, 0x00, 0x49, 0x64, 0x65, 0x6e,
  0x74, 0x69, 0x74, 0x79, 0x00, 0x00, 0x00, 0x00, 0x4c, 0xd2, 0xff, 0xff,
  0x00, 0x00, 0x0e, 0x00, 0x18, 0x00, 0x08, 0x00, 0x0c, 0x00, 0x10, 0x00,
  0x07, 0x00, 0x14, 0x00, 0x0e, 0x00, 0x00, 0x00, 0x00, 0x00, 0x00, 0x08,
  0x03, 0x00, 0x00, 0x00, 0x18, 0x00, 0x00, 0x00, 0x0c, 0x00, 0x00, 0x00,
  0x04, 0x00, 0x00, 0x00, 0x20, 0xd2, 0xff, 0xff, 0x01, 0x00, 0x00, 0x00,
  0x10, 0x00, 0x00, 0x00, 0x03, 0x00, 0x00, 0x00, 0x0f, 0x00, 0x00, 0x00,
  0x05, 0x00, 0x00, 0x00, 0x02, 0x00, 0x00, 0x00, 0x8a, 0xd2, 0xff, 0xff,
  0x10, 0x00, 0x00, 0x00, 0x11, 0x00, 0x00, 0x00, 0x14, 0x00, 0x00, 0x00,
  0x30, 0x00, 0x00, 0x00, 0x02, 0x00, 0x00, 0x00, 0x01, 0x00, 0x00, 0x00,
  0x02, 0x00, 0x00, 0x00, 0x1a, 0x00, 0x00, 0x00, 0x73, 0x65, 0x71, 0x75,
  0x65, 0x6e, 0x74, 0x69, 0x61, 0x6c, 0x2f, 0x64, 0x65, 0x6e, 0x73, 0x65,
  0x5f, 0x31, 0x2f, 0x42, 0x69, 0x61, 0x73, 0x41, 0x64, 0x64, 0x00, 0x00,
  0x7c, 0xd2, 0xff, 0xff, 0xd6, 0xfd, 0xff, 0xff, 0x00, 0x00, 0x00, 0x08,
  0x03, 0x00, 0x00, 0x00, 0x24, 0x00, 0x00, 0x00, 0x18, 0x00, 0x00, 0x00,
  0x0c, 0x00, 0x00, 0x00, 0x00, 0x00, 0x06, 0x00, 0x08, 0x00, 0x07, 0x00,
  0x06, 0x00, 0x00, 0x00, 0x00, 0x00, 0x00, 0x01, 0x01, 0x00, 0x00, 0x00,
  0x0f, 0x00, 0x00, 0x00, 0x03, 0x00, 0x00, 0x00, 0x0e, 0x00, 0x00, 0x00,
  0x04, 0x00, 0x00, 0x00, 0x01, 0x00, 0x00, 0x00, 0xfe, 0xfc, 0xff, 0xff,
  0x00, 0x00, 0x00, 0x09, 0x01, 0x00, 0x00, 0x00, 0x1a, 0xd3, 0xff, 0xff,
  0x10, 0x00, 0x00, 0x00, 0x10, 0x00, 0x00, 0x00, 0x14, 0x00, 0x00, 0x00,
  0x2c, 0x00, 0x00, 0x00, 0x02, 0x00, 0x00, 0x00, 0x01, 0x00, 0x00, 0x00,
  0x10, 0x00, 0x00, 0x00, 0x15, 0x00, 0x00, 0x00, 0x73, 0x65, 0x71, 0x75,
  0x65, 0x6e, 0x74, 0x69, 0x61, 0x6c, 0x2f, 0x64, 0x65, 0x6e, 0x73, 0x65,
  0x2f, 0x52, 0x65, 0x6c, 0x75, 0x00, 0x00, 0x00, 0x60, 0xd3, 0xff, 0xff,
  0x00, 0x00, 0x0a, 0x00, 0x10, 0x00, 0x04, 0x00, 0x08, 0x00, 0x0c, 0x00,
  0x0a, 0x00, 0x00, 0x00, 0x02, 0x00, 0x00, 0x00, 0x10, 0x00, 0x00, 0x00,
  0x04, 0x00, 0x00, 0x00, 0x01, 0x00, 0x00, 0x00, 0x0e, 0x00, 0x00, 0x00,
  0x02, 0x00, 0x00, 0x00, 0x0d, 0x00, 0x00, 0x00, 0x03, 0x00, 0x00, 0x00,
  0x7a, 0xfd, 0xff, 0xff, 0x00, 0x00, 0x00, 0x16, 0x01, 0x00, 0x00, 0x00,
  0x96, 0xd3, 0xff, 0xff, 0x10, 0x00, 0x00, 0x00, 0x0f, 0x00, 0x00, 0x00,
  0x14, 0x00, 0x00, 0x00, 0x30, 0x00, 0x00, 0x00, 0x02, 0x00, 0x00, 0x00,
  0x01, 0x00, 0x00, 0x00, 0x70, 0x00, 0x00, 0x00, 0x1a, 0x00, 0x00, 0x00,
  0x73, 0x65, 0x71, 0x75, 0x65, 0x6e, 0x74, 0x69, 0x61, 0x6c, 0x2f, 0x66,
  0x6c, 0x61, 0x74, 0x74, 0x65, 0x6e, 0x2f, 0x52, 0x65, 0x73, 0x68, 0x61,
  0x70, 0x65, 0x00, 0x00, 0x88, 0xd3, 0xff, 0xff, 0xe2, 0xfe, 0xff, 0xff,
  0x00, 0x00, 0x00, 0x05, 0x01, 0x00, 0x00, 0x00, 0x38, 0x00, 0x00, 0x00,
  0x2c, 0x00, 0x00, 0x00, 0x14, 0x00, 0x00, 0x00, 0x00, 0x00, 0x0e, 0x00,
  0x14, 0x00, 0x00, 0x00, 0x10, 0x00, 0x0c, 0x00, 0x08, 0x00, 0x04, 0x00,
  0x0e, 0x00, 0x00, 0x00, 0x03, 0x00, 0x00, 0x00, 0x01, 0x00, 0x00, 0x00,
  0x03, 0x00, 0x00, 0x00, 0x01, 0x00, 0x00, 0x00, 0x01, 0x00, 0x00, 0x00,
  0x0d, 0x00, 0x00, 0x00, 0x01, 0x00, 0x00, 0x00, 0x0c, 0x00, 0x00, 0x00,
  0x26, 0xd4, 0xff, 0xff, 0x10, 0x00, 0x00, 0x00, 0x0e, 0x00, 0x00, 0x00,
  0x1c, 0x00, 0x00, 0x00, 0x40, 0x00, 0x00, 0x00, 0x04, 0x00, 0x00, 0x00,
  0x01, 0x00, 0x00, 0x00, 0x07, 0x00, 0x00, 0x00, 0x01, 0x00, 0x00, 0x00,
  0x10, 0x00, 0x00, 0x00, 0x22, 0x00, 0x00, 0x00, 0x73, 0x65, 0x71, 0x75,
  0x65, 0x6e, 0x74, 0x69, 0x61, 0x6c, 0x2f, 0x6d, 0x61, 0x78, 0x5f, 0x70,
  0x6f, 0x6f, 0x6c, 0x69, 0x6e, 0x67, 0x32, 0x64, 0x5f, 0x31, 0x2f, 0x4d,
  0x61, 0x78, 0x50, 0x6f, 0x6f, 0x6c, 0x00, 0x00, 0x28, 0xd4, 0xff, 0xff,
  0xc2, 0xfe, 0xff, 0xff, 0x00, 0x00, 0x00, 0x01, 0x24, 0x00, 0x00, 0x00,
  0x18, 0x00, 0x00, 0x00, 0x04, 0x00, 0x00, 0x00, 0xb4, 0xfe, 0xff, 0xff,
  0x01, 0x00, 0x00, 0x00, 0x01, 0x00, 0x00, 0x00, 0x00, 0x00, 0x00, 0x01,
  0x01, 0x00, 0x00, 0x00, 0x0c, 0x00, 0x00, 0x00, 0x03, 0x00, 0x00, 0x00,
  0x0b, 0x00, 0x00, 0x00, 0x07, 0x00, 0x00, 0x00, 0x09, 0x00, 0x00, 0x00,
  0xb6, 0xd4, 0xff, 0xff, 0x10, 0x00, 0x00, 0x00, 0x0d, 0x00, 0x00, 0x00,
  0x1c, 0x00, 0x00, 0x00, 0x2c, 0x00, 0x00, 0x00, 0x04, 0x00, 0x00, 0x00,
  0x01, 0x00, 0x00, 0x00, 0x15, 0x00, 0x00, 0x00, 0x01, 0x00, 0x00, 0x00,
  0x10, 0x00, 0x00, 0x00, 0x0c, 0x00, 0x00, 0x00, 0x74, 0x66, 0x6c, 0x2e,
  0x63, 0x6f, 0x6e, 0x76, 0x5f, 0x32, 0x64, 0x31, 0x00, 0x00, 0x00, 0x00,
  0xfc, 0xd4, 0xff, 0xff, 0x00, 0x00, 0x0e, 0x00, 0x1a, 0x00, 0x08, 0x00,
  0x0c, 0x00, 0x10, 0x00, 0x07, 0x00, 0x14, 0x00, 0x0e, 0x00, 0x00, 0x00,
  0x00, 0x00, 0x00, 0x05, 0x01, 0x00, 0x00, 0x00, 0x3c, 0x00, 0x00, 0x00,
  0x30, 0x00, 0x00, 0x00, 0x14, 0x00, 0x00, 0x00, 0x00, 0x00, 0x0e, 0x00,
  0x18, 0x00, 0x17, 0x00, 0x10, 0x00, 0x0c, 0x00, 0x08, 0x00, 0x04, 0x00,
  0x0e, 0x00, 0x00, 0x00, 0x03, 0x00, 0x00, 0x00, 0x03, 0x00, 0x00, 0x00,
  0x03, 0x00, 0x00, 0x00, 0x03, 0x00, 0x00, 0x00, 0x00, 0x00, 0x00, 0x01,
  0x01, 0x00, 0x00, 0x00, 0x0b, 0x00, 0x00, 0x00, 0x01, 0x00, 0x00, 0x00,
  0x0a, 0x00, 0x00, 0x00, 0x46, 0xff, 0xff, 0xff, 0x00, 0x00, 0x00, 0x11,
  0x01, 0x00, 0x00, 0x00, 0x62, 0xd5, 0xff, 0xff, 0x10, 0x00, 0x00, 0x00,
  0x0c, 0x00, 0x00, 0x00, 0x1c, 0x00, 0x00, 0x00, 0x40, 0x00, 0x00, 0x00,
  0x04, 0x00, 0x00, 0x00, 0x01, 0x00, 0x00, 0x00, 0x15, 0x00, 0x00, 0x00,
  0x01, 0x00, 0x00, 0x00, 0x08, 0x00, 0x00, 0x00, 0x20, 0x00, 0x00, 0x00,
  0x73, 0x65, 0x71, 0x75, 0x65, 0x6e, 0x74, 0x69, 0x61, 0x6c, 0x2f, 0x6d,
  0x61, 0x78, 0x5f, 0x70, 0x6f, 0x6f, 0x6c, 0x69, 0x6e, 0x67, 0x32, 0x64,
  0x2f, 0x4d, 0x61, 0x78, 0x50, 0x6f, 0x6f, 0x6c, 0x00, 0x00, 0x00, 0x00,
  0xbc, 0xd5, 0xff, 0xff, 0x00, 0x00, 0x0e, 0x00, 0x14, 0x00, 0x00, 0x00,
  0x08, 0x00, 0x0c, 0x00, 0x07, 0x00, 0x10, 0x00, 0x0e, 0x00, 0x00, 0x00,
  0x00, 0x00, 0x00, 0x01, 0x30, 0x00, 0x00, 0x00, 0x24, 0x00, 0x00, 0x00,
  0x10, 0x00, 0x00, 0x00, 0x0c, 0x00, 0x10, 0x00, 0x00, 0x00, 0x04, 0x00,
  0x08, 0x00, 0x0f, 0x00, 0x0c, 0x00, 0x00, 0x00, 0x01, 0x00, 0x00, 0x00,
  0x01, 0x00, 0x00, 0x00, 0x00, 0x00, 0x00, 0x01, 0x01, 0x00, 0x00, 0x00,
  0x0a, 0x00, 0x00, 0x00, 0x03, 0x00, 0x00, 0x00, 0x00, 0x00, 0x00, 0x00,
  0x06, 0x00, 0x00, 0x00, 0x08, 0x00, 0x00, 0x00, 0x00, 0x00, 0x0a, 0x00,
  0x0c, 0x00, 0x07, 0x00, 0x00, 0x00, 0x08, 0x00, 0x0a, 0x00, 0x00, 0x00,
  0x00, 0x00, 0x00, 0x03, 0x01, 0x00, 0x00, 0x00, 0x26, 0xd6, 0xff, 0xff,
  0x10, 0x00, 0x00, 0x00, 0x0b, 0x00, 0x00, 0x00, 0x1c, 0x00, 0x00, 0x00,
  0x28, 0x00, 0x00, 0x00, 0x04, 0x00, 0x00, 0x00, 0x01, 0x00, 0x00, 0x00,
  0x40, 0x00, 0x00, 0x00, 0x03, 0x00, 0x00, 0x00, 0x08, 0x00, 0x00, 0x00,
  0x0b, 0x00, 0x00, 0x00, 0x74, 0x66, 0x6c, 0x2e, 0x63, 0x6f, 0x6e, 0x76,
  0x5f, 0x32, 0x64, 0x00, 0x10, 0xd6, 0xff, 0xff, 0x06, 0xd7, 0xff, 0xff,
  0x04, 0x00, 0x00, 0x00, 0x40, 0x00, 0x00, 0x00, 0x79, 0x7d, 0x0e, 0xbf,
  0x2f, 0x55, 0x43, 0xbe, 0xbc, 0x3a, 0xaa, 0x3e, 0x40, 0x96, 0xba, 0xbd,
  0x98, 0x0c, 0xb6, 0xbe, 0xaf, 0xa9, 0xee, 0xbe, 0x39, 0x53, 0x97, 0xbb,
  0x1a, 0xba, 0x11, 0xbf, 0x93, 0x31, 0x6f, 0xbe, 0xb5, 0x91, 0x61, 0xbe,
  0x64, 0x71, 0x6a, 0xbf, 0x69, 0x42, 0xa1, 0xbe, 0x6e, 0xbe, 0x5a, 0xbe,
  0x87, 0x5e, 0xd8, 0xbe, 0x15, 0x58, 0x0c, 0xbf, 0xe8, 0x26, 0x9d, 0x3d,
  0xae, 0xd6, 0xff, 0xff, 0x10, 0x00, 0x00, 0x00, 0x0a, 0x00, 0x00, 0x00,
  0x10, 0x00, 0x00, 0x00, 0x20, 0x00, 0x00, 0x00, 0x01, 0x00, 0x00, 0x00,
  0x10, 0x00, 0x00, 0x00, 0x0d, 0x00, 0x00, 0x00, 0x73, 0x74, 0x64, 0x2e,
  0x63, 0x6f, 0x6e, 0x73, 0x74, 0x61, 0x6e, 0x74, 0x31, 0x00, 0x00, 0x00,
  0x90, 0xd6, 0xff, 0xff, 0x86, 0xd7, 0xff, 0xff, 0x04, 0x00, 0x00, 0x00,
  0x20, 0x00, 0x00, 0x00, 0xfd, 0xa7, 0x8f, 0x3f, 0x53, 0x13, 0x70, 0xbe,
  0x65, 0xe3, 0x8a, 0x3f, 0x63, 0xa1, 0x08, 0x40, 0x44, 0xb8, 0x97, 0xbe,
  0x50, 0x61, 0x58, 0x3e, 0x8e, 0xa9, 0x06, 0xbf, 0xfd, 0x93, 0x73, 0xbf,
  0x0e, 0xd7, 0xff, 0xff, 0x10, 0x00, 0x00, 0x00, 0x09, 0x00, 0x00, 0x00,
  0x10, 0x00, 0x00, 0x00, 0x20, 0x00, 0x00, 0x00, 0x01, 0x00, 0x00, 0x00,
  0x08, 0x00, 0x00, 0x00, 0x0c, 0x00, 0x00, 0x00, 0x73, 0x74, 0x64, 0x2e,
  0x63, 0x6f, 0x6e, 0x73, 0x74, 0x61, 0x6e, 0x74, 0x00, 0x00, 0x00, 0x00,
  0xf0, 0xd6, 0xff, 0xff, 0xe6, 0xd7, 0xff, 0xff, 0x04, 0x00, 0x00, 0x00,
  0x00, 0x08, 0x00, 0x00, 0xd8, 0x85, 0x9b, 0xbe, 0xb0, 0xa7, 0xb2, 0xbe,
  0xac, 0x8b, 0x47, 0x3c, 0x44, 0x78, 0x96, 0xbe, 0x9d, 0x26, 0xa9, 0x3d,
  0x60, 0x9e, 0x96, 0x3d, 0x7a, 0x75, 0xc1, 0xbe, 0xc5, 0xaf, 0xb1, 0xbc,
  0x11, 0xb8, 0x87, 0x3e, 0x04, 0xfc, 0xdc, 0x3d, 0x03, 0x58, 0x59, 0x3e,
  0x08, 0x9b, 0x0e, 0xbe, 0x23, 0x62, 0xc6, 0x3d, 0xc4, 0x72, 0x78, 0x3e,
  0x1f, 0xf8, 0xa1, 0xbe, 0xbe, 0x11, 0xe9, 0x3d, 0x89, 0xe7, 0xb4, 0x3c,
  0x75, 0xe2, 0xe6, 0xbd, 0x8c, 0xf1, 0xfa, 0x3e, 0x1a, 0xfa, 0xbf, 0xbc,
  0x1f, 0x82, 0x8a, 0x3e, 0xed, 0x48, 0xc7, 0x3e, 0x0a, 0x26, 0x7e, 0xbe,
  0x73, 0x9d, 0x09, 0x3d, 0xc1, 0xd3, 0xad, 0x3c, 0xae, 0xf9, 0xec, 0xbc,
  0xd1, 0x38, 0x99, 0x3d, 0x44, 0xb1, 0x06, 0xbe, 0xc4, 0xa6, 0x38, 0xbd,
  0x30, 0x0b, 0x66, 0x3e, 0x0b, 0xd3, 0xc2, 0xbe, 0x1f, 0x74, 0x71, 0x3e,
  0x57, 0xd0, 0x87, 0x3e, 0x1d, 0xe3, 0x7f, 0xbe, 0x61, 0xd0, 0x22, 0x3e,
  0xde, 0x8d, 0x0b, 0x3e, 0x44, 0x3d, 0xa0, 0xbc, 0x32, 0xfd, 0x75, 0xbd,
  0x57, 0x51, 0xcd, 0xbd, 0x33, 0x52, 0x14, 0x3d, 0x25, 0xfb, 0xc8, 0x3c,
  0x14, 0xe0, 0x90, 0x3e, 0x7e, 0x9e, 0x52, 0xbf, 0x6c, 0x26, 0xa5, 0xbd,
  0x9d, 0x0f, 0xcd, 0xbd, 0x11, 0x3f, 0x10, 0xbf, 0xdc, 0xbc, 0x9c, 0x3d,
  0x07, 0x16, 0x9d, 0xbe, 0x86, 0xe5, 0x09, 0xbe, 0xfe, 0xbb, 0xb9, 0x3d,
  0x71, 0xee, 0xfc, 0xbe, 0xcc, 0x35, 0xbf, 0x3c, 0x9b, 0x7b, 0x31, 0xbe,
  0x50, 0x37, 0x8a, 0xbe, 0x86, 0x6e, 0xb0, 0x3c, 0x6a, 0xd9, 0xb1, 0x3d,
  0xfc, 0xc2, 0x8c, 0xbb, 0xcd, 0x09, 0x33, 0x3e, 0xf4, 0xd9, 0x2c, 0xbf,
  0xb1, 0xf5, 0x45, 0xbe, 0x9f, 0x1c, 0xa5, 0xbe, 0x31, 0x57, 0xdc, 0xbe,
  0x9d, 0xc6, 0x96, 0x3c, 0xc5, 0x05, 0xfb, 0x3d, 0x8f, 0x42, 0xb1, 0x3e,
  0x9e, 0xb7, 0x3b, 0xbd, 0x0a, 0x2f, 0x91, 0x3e, 0x87, 0x37, 0x0a, 0x3e,
  0x7a, 0x0f, 0x62, 0x3e, 0xd9, 0x83, 0xa8, 0xbc, 0xc4, 0x33, 0x6c, 0xbe,
  0x6e, 0xd4, 0xc6, 0x3e, 0xaf, 0xb6, 0x5d, 0xbd, 0xcb, 0x63, 0x84, 0xbd,
  0xd5, 0x4e, 0x99, 0xbe, 0x4a, 0x4e, 0x75, 0xbe, 0x55, 0x91, 0x52, 0x3c,
  0xc2, 0x24, 0x35, 0xbe, 0x19, 0x43, 0xf1, 0xbe, 0x3f, 0xe2, 0x4d, 0x3d,
  0x51, 0x2a, 0x9e, 0x3d, 0x02, 0xce, 0x4c, 0x3d, 0x80, 0xf4, 0x0e, 0xbe,
  0xfb, 0xf4, 0xa8, 0xbd, 0x9e, 0xa6, 0x11, 0x3e, 0x49, 0x38, 0x73, 0xbe,
  0x70, 0xff, 0x9d, 0xbe, 0xe8, 0x47, 0x4b, 0x3e, 0xd8, 0x6c, 0x8d, 0xbc,
  0x07, 0x5b, 0xc0, 0x3d, 0x4a, 0x90, 0x11, 0xbf, 0xf2, 0xcd, 0x84, 0xbd,
  0x5a, 0xb1, 0xb5, 0xbd, 0xa6, 0x58, 0xd9, 0xbd, 0xbf, 0xb7, 0xec, 0xbe,
  0xf5, 0x90, 0x1f, 0xbf, 0xf4, 0xc2, 0x30, 0x3e, 0x61, 0xf3, 0xbf, 0xbd,
  0xe0, 0xe3, 0xc9, 0x3e, 0xd1, 0xf0, 0xba, 0x3d, 0x8a, 0xcb, 0x72, 0x3d,
  0xa2, 0x42, 0x04, 0x3f, 0xc9, 0x8a, 0x26, 0xbe, 0x96, 0x98, 0x90, 0x3c,
  0x1b, 0xb2, 0x01, 0xbe, 0xd7, 0x29, 0x48, 0xbd, 0x0f, 0x57, 0x53, 0x3d,
  0xc8, 0x95, 0x88, 0xbd, 0x7b, 0x10, 0x92, 0x3d, 0xe4, 0xff, 0x30, 0x3e,
  0x95, 0x93, 0x37, 0xbe, 0xbd, 0x2d, 0x23, 0x3e, 0xee, 0xef, 0x0e, 0xbe,
  0x2b, 0x7e, 0x55, 0xbe, 0xea, 0x50, 0xfe, 0x3d, 0x4f, 0x48, 0x01, 0x3d,
  0x59, 0x95, 0xb6, 0x3c, 0x8d, 0xa7, 0x2a, 0xbd, 0x45, 0x5b, 0xe5, 0xbd,
  0x8a, 0xe3, 0x72, 0xbc, 0x70, 0x2b, 0xdc, 0xbc, 0xfa, 0x9b, 0x74, 0xbe,
  0x54, 0x27, 0xee, 0x3e, 0x5b, 0xfb, 0x04, 0xbe, 0xb5, 0x74, 0xa7, 0x3e,
  0x96, 0xa8, 0x14, 0xbd, 0xff, 0xe8, 0x11, 0xbe, 0x86, 0xf8, 0x83, 0xbd,
  0xb1, 0xf4, 0x36, 0xbe, 0x03, 0xf2, 0x41, 0xbe, 0xa8, 0xbc, 0x0b, 0xbe,
  0x67, 0x7e, 0x09, 0xbe, 0x02, 0xfb, 0x91, 0xbe, 0xa9, 0x67, 0xcb, 0xbe,
  0x46, 0xce, 0xcb, 0xbe, 0xf4, 0xae, 0xa8, 0xbe, 0xbb, 0x67, 0x71, 0x3e,
  0x77, 0xb1, 0xb6, 0x3d, 0x65, 0x29, 0xc5, 0x3d, 0xec, 0x13, 0xb5, 0x3e,
  0x47, 0xa5, 0xac, 0x3d, 0x60, 0x4b, 0xb3, 0xbc, 0x0a, 0x4b, 0x53, 0x3b,
  0x8e, 0xdd, 0x9d, 0xbd, 0x1a, 0x4e, 0x25, 0x3e, 0x7b, 0x07, 0xeb, 0x3d,
  0x7d, 0xbd, 0x92, 0xbc, 0xa8, 0xd1, 0x14, 0x3e, 0x78, 0xa9, 0x64, 0x3d,
  0x58, 0xc7, 0x9e, 0x3e, 0xe1, 0x6b, 0x81, 0x3d, 0xcd, 0xef, 0x7e, 0x3e,
  0xc5, 0x5e, 0x1f, 0xbd, 0x3b, 0xc3, 0x61, 0x3d, 0xe5, 0x0e, 0x58, 0xbd,
  0xcd, 0xa2, 0x8a, 0x3c, 0x90, 0x29, 0x20, 0x3e, 0x50, 0xa0, 0x96, 0xbb,
  0x93, 0x00, 0x85, 0xbd, 0x45, 0x49, 0xe0, 0x3d, 0x4a, 0x89, 0x17, 0xbf,
  0x2f, 0xea, 0x71, 0xbe, 0xf3, 0xe1, 0x97, 0xbb, 0x27, 0x55, 0x23, 0x3d,
  0x67, 0xac, 0xcb, 0x3c, 0x62, 0x8d, 0x21, 0x3e, 0xe0, 0x39, 0xc5, 0xbc,
  0x18, 0x50, 0x92, 0xbe, 0xb9, 0xca, 0x5f, 0xbf, 0x1a, 0x95, 0xab, 0xbd,
  0xec, 0x9e, 0x06, 0xbe, 0x39, 0x1b, 0x1c, 0xbf, 0x05, 0x12, 0xb2, 0xbe,
  0xf5, 0x2c, 0x1d, 0xbf, 0xc7, 0xa0, 0xa3, 0xbd, 0x1f, 0x10, 0xdc, 0xba,
  0x2d, 0x9a, 0x2d, 0xbe, 0x23, 0x99, 0x1e, 0xbe, 0xfc, 0x66, 0x94, 0x3e,
  0xa2, 0xdb, 0x20, 0xbe, 0x82, 0xd3, 0x23, 0xbf, 0x63, 0xf4, 0x41, 0xbe,
  0x3c, 0xf5, 0x32, 0x3b, 0x3d, 0xe3, 0x82, 0xbe, 0x6e, 0x82, 0xf9, 0x3d,
  0x65, 0x82, 0xd5, 0x3e, 0x33, 0xcd, 0x9e, 0x3e, 0xc3, 0xa2, 0x15, 0x3f,
  0xed, 0x9b, 0xad, 0x3c, 0xb6, 0xc7, 0x02, 0xbe, 0x4f, 0x89, 0x91, 0xbc,
  0x74, 0xc9, 0x50, 0x3d, 0x24, 0x82, 0x42, 0xbe, 0xcc, 0xd1, 0xb2, 0x3d,
  0x75, 0x01, 0x32, 0xbe, 0x00, 0xd9, 0x30, 0xbe, 0xea, 0x1c, 0xcf, 0xbd,
  0x4b, 0x27, 0xab, 0xbe, 0x3c, 0x14, 0x4b, 0x3e, 0xc1, 0x0d, 0xe9, 0x3c,
  0x27, 0xdd, 0xf7, 0xbd, 0x46, 0x3a, 0x81, 0x3e, 0x2b, 0xd8, 0xf1, 0x3e,
  0xe2, 0x94, 0xf9, 0xbc, 0xd2, 0x89, 0x01, 0x3d, 0x8b, 0x3e, 0x56, 0x3e,
  0xe5, 0xb4, 0x8f, 0xbc, 0xd6, 0x11, 0x5d, 0xbe, 0x20, 0xa9, 0xfa, 0xbd,
  0xb0, 0x63, 0x15, 0xbe, 0xe4, 0x01, 0x9c, 0xbe, 0x57, 0x28, 0x5b, 0xbf,
  0x87, 0x6a, 0xa0, 0xba, 0x67, 0xa0, 0xe6, 0x3e, 0x87, 0xeb, 0xfc, 0xbd,
  0x1d, 0x87, 0x8b, 0xbd, 0x4a, 0x16, 0x63, 0xbf, 0x51, 0xdf, 0x6a, 0xbe,
  0x91, 0x7b, 0x17, 0xbf, 0xc7, 0xf9, 0xdb, 0xbe, 0xdb, 0xb1, 0x92, 0xbe,
  0x48, 0x98, 0xb5, 0xbe, 0xa0, 0xcb, 0x15, 0xbe, 0x4c, 0xf8, 0x3f, 0xbd,
  0x69, 0x9b, 0x05, 0xbe, 0x51, 0x3c, 0x8b, 0xbd, 0x8b, 0x67, 0x83, 0x3e,
  0x2f, 0x8c, 0x92, 0xbe, 0xe0, 0x07, 0x53, 0xbd, 0xa8, 0x57, 0x5a, 0xbc,
  0x4e, 0x65, 0xe5, 0xbc, 0x96, 0x1e, 0x4d, 0x3d, 0x06, 0x5f, 0x4d, 0x3e,
  0xa0, 0x26, 0xd1, 0xbd, 0xab, 0x90, 0x4c, 0x3e, 0x75, 0xf3, 0x3c, 0x3e,
  0x4a, 0x5c, 0xbc, 0x3c, 0xd3, 0xba, 0xe8, 0x3d, 0x14, 0x05, 0x81, 0x3d,
  0x83, 0xf1, 0xe4, 0x3d, 0x80, 0x30, 0x7d, 0x3d, 0xbe, 0x58, 0xe1, 0xbc,
  0x5e, 0xf9, 0x90, 0xbd, 0x7b, 0xa2, 0xbf, 0x3c, 0x9a, 0xee, 0xdb, 0xbb,
  0x6c, 0xbc, 0x67, 0xbc, 0x05, 0x65, 0xed, 0xbd, 0x30, 0xb6, 0x1b, 0x3e,
  0x3f, 0x51, 0xcb, 0x3c, 0xcf, 0x32, 0x55, 0x3e, 0x07, 0xdf, 0xaa, 0xbb,
  0x40, 0xb7, 0x19, 0xbe, 0x11, 0x4a, 0xe4, 0x3c, 0xc1, 0x2a, 0x52, 0x3e,
  0x30, 0x51, 0x82, 0xbd, 0x18, 0x53, 0xb0, 0x3b, 0x02, 0x1a, 0xc1, 0x3d,
  0x15, 0x07, 0x7d, 0xbe, 0x14, 0xef, 0x27, 0xbe, 0x7c, 0x03, 0x02, 0xbe,
  0x76, 0x15, 0xaf, 0x3d, 0x8a, 0x14, 0x27, 0xbe, 0x0b, 0xa7, 0x37, 0xbd,
  0xb2, 0xee, 0x23, 0xbe, 0x5f, 0xfb, 0x18, 0x3e, 0x31, 0xfb, 0xe8, 0x3e,
  0x60, 0x49, 0x20, 0xbe, 0xd8, 0xef, 0x86, 0x3e, 0x24, 0x05, 0x0a, 0xbc,
  0xdf, 0x5e, 0xa0, 0xbc, 0xff, 0x05, 0x51, 0xbc, 0x64, 0x86, 0xa8, 0xbd,
  0xf5, 0xcb, 0xeb, 0x3d, 0x49, 0xb7, 0x20, 0xbd, 0x13, 0x45, 0x60, 0xbd,
  0x18, 0xfb, 0x48, 0xbe, 0x19, 0xf6, 0xeb, 0x3d, 0xab, 0x08, 0x9d, 0x3d,
  0xe8, 0xee, 0x27, 0x3d, 0x75, 0x95, 0xe3, 0xbd, 0xf8, 0x11, 0x51, 0xbe,
  0xeb, 0x1c, 0xe7, 0xbd, 0xed, 0x42, 0x04, 0xbe, 0xe1, 0x2f, 0x37, 0xbe,
  0x3d, 0xd2, 0xd4, 0x3d, 0x12, 0x7e, 0xc7, 0x3d, 0x8c, 0xfc, 0x27, 0x3b,
  0xc3, 0x6f, 0xb3, 0xbd, 0xe7, 0x31, 0xee, 0xbe, 0x79, 0xe4, 0xbc, 0xbd,
  0x0e, 0xb5, 0xd3, 0x3d, 0x81, 0x24, 0x9c, 0xbd, 0x1f, 0xc6, 0x9b, 0xbe,
  0xab, 0x52, 0x3c, 0x3e, 0x96, 0xad, 0x15, 0xbe, 0xa2, 0x4e, 0x1f, 0xbd,
  0x15, 0xec, 0x38, 0xbf, 0x1d, 0x62, 0x0a, 0xbe, 0x7f, 0xfc, 0xec, 0xbd,
  0x1a, 0x06, 0x1a, 0xbf, 0x9e, 0x89, 0x14, 0x3e, 0xbe, 0xde, 0x8f, 0xbd,
  0xa8, 0x52, 0xd8, 0xbd, 0x95, 0x06, 0x53, 0x3c, 0x23, 0x45, 0x58, 0xbf,
  0x7d, 0xe7, 0x83, 0xbe, 0x42, 0x6a, 0xd5, 0x3c, 0x00, 0x32, 0x82, 0xbe,
  0xd4, 0x03, 0x19, 0xbe, 0x9c, 0x00, 0x99, 0xbe, 0xd5, 0x25, 0x54, 0xbd,
  0x8c, 0x09, 0xc9, 0xbe, 0x76, 0xb1, 0x2a, 0xbd, 0xd9, 0x91, 0xbd, 0x3e,
  0x30, 0x6b, 0xfe, 0x3e, 0xc5, 0x3c, 0x13, 0x3f, 0x4b, 0x6b, 0xf3, 0x3c,
  0x68, 0x54, 0x28, 0xbe, 0xf5, 0xe8, 0x20, 0x3c, 0xca, 0xc7, 0xc6, 0xbd,
  0xce, 0x6f, 0x94, 0xbe, 0x9f, 0xed, 0xd7, 0xbe, 0xe8, 0xb8, 0xa5, 0x3d,
  0xe0, 0xed, 0x8e, 0xbe, 0x9b, 0x39, 0xf2, 0x3c, 0x95, 0xb3, 0x98, 0x3d,
  0x4e, 0x5c, 0xf7, 0xbe, 0x75, 0x3c, 0x81, 0xbe, 0x1c, 0x99, 0xf4, 0x3e,
  0xc4, 0xaf, 0x80, 0x3c, 0x59, 0xb9, 0x51, 0x3e, 0xec, 0x68, 0x2a, 0x3e,
  0xb1, 0x5f, 0x03, 0x3e, 0x65, 0x78, 0xb3, 0x3e, 0x22, 0xaa, 0x7b, 0xbd,
  0xa3, 0xe4, 0x88, 0xbc, 0x54, 0x32, 0x52, 0x3d, 0xa5, 0x77, 0xb9, 0xbc,
  0x65, 0xbf, 0x39, 0x3e, 0xd2, 0x0c, 0x7c, 0x3d, 0xe4, 0x20, 0x68, 0xbc,
  0xd4, 0xc5, 0x23, 0x3e, 0x24, 0x9c, 0x1e, 0xbe, 0x8b, 0x05, 0xa8, 0x3e,
  0x2a, 0xa8, 0x02, 0x3c, 0x05, 0x7f, 0x09, 0xbe, 0x99, 0xf2, 0x3f, 0x3e,
  0xd8, 0x2d, 0x33, 0xbe, 0x96, 0x2a, 0x39, 0x3e, 0x6b, 0x6a, 0x95, 0x3e,
  0x14, 0x64, 0x68, 0xbd, 0x05, 0xb2, 0x8f, 0xbd, 0x9d, 0x73, 0x5a, 0xbe,
  0x5d, 0x0f, 0x8a, 0xbe, 0x4d, 0x8e, 0x27, 0xbe, 0x18, 0x25, 0xdf, 0xbe,
  0x22, 0x18, 0x03, 0xbf, 0x5e, 0x4f, 0xea, 0x3b, 0x83, 0x97, 0xbc, 0xbe,
  0x09, 0x1b, 0x68, 0xbe, 0xe4, 0x96, 0xdb, 0x3e, 0x06, 0x56, 0x1a, 0x39,
  0x96, 0x73, 0x4f, 0x3e, 0xd8, 0xb2, 0x32, 0x3e, 0xcb, 0xaf, 0x6a, 0xbe,
  0xf5, 0x7e, 0xd8, 0xbe, 0x77, 0x68, 0x5b, 0xbe, 0x54, 0x16, 0xa4, 0x3e,
  0xf2, 0xc2, 0x5c, 0x3e, 0x6d, 0x6c, 0xaa, 0x3c, 0x90, 0x16, 0x90, 0xbe,
  0x0b, 0xe2, 0x2c, 0xbe, 0x5b, 0x36, 0x8f, 0xbe, 0x25, 0x64, 0xd7, 0xbe,
  0x2b, 0x07, 0x9c, 0xbe, 0x9c, 0x5d, 0x90, 0x3e, 0x7d, 0x4a, 0x28, 0x3a,
  0xb2, 0xd9, 0x93, 0x3d, 0x24, 0xc0, 0x29, 0xbf, 0x6d, 0xf6, 0x88, 0xbe,
  0x20, 0xe0, 0x84, 0xbe, 0xb8, 0x75, 0x49, 0xbf, 0xba, 0x55, 0xcc, 0xbe,
  0x93, 0x50, 0x1d, 0x3e, 0xe9, 0x1c, 0x23, 0xbf, 0x88, 0xc1, 0x38, 0xbd,
  0x21, 0x6c, 0xf3, 0xbe, 0xd3, 0x41, 0x79, 0xbf, 0xeb, 0x05, 0xf8, 0x3d,
  0xbe, 0x2c, 0x03, 0x3e, 0xcb, 0xba, 0x2b, 0xbc, 0x00, 0x3e, 0x8d, 0x3c,
  0x24, 0x9e, 0x87, 0xbf, 0x05, 0x71, 0x92, 0x3c, 0x7e, 0x4d, 0x3a, 0x3f,
  0x34, 0x38, 0x9e, 0xbe, 0x49, 0xfb, 0x5d, 0x3e, 0x7e, 0x30, 0xc5, 0x3e,
  0x45, 0xbc, 0x74, 0x3b, 0x38, 0x0f, 0x82, 0xbd, 0x78, 0xb7, 0x10, 0xbf,
  0x3e, 0xa6, 0x61, 0xbf, 0xc6, 0xb7, 0x8a, 0x3e, 0x38, 0x5e, 0x2e, 0xbf,
  0x8a, 0x81, 0x2c, 0xbd, 0x78, 0x9a, 0x00, 0xbe, 0x7f, 0xba, 0x64, 0xbd,
  0xd0, 0xe1, 0xbf, 0xbc, 0xda, 0x87, 0x52, 0xbf, 0x09, 0xcf, 0xe6, 0xbe,
  0xab, 0xa7, 0x44, 0xbc, 0xfb, 0xc5, 0xf4, 0xbe, 0xf8, 0x4c, 0x12, 0x3d,
  0xe7, 0xad, 0xe9, 0xbe, 0xa9, 0x22, 0x86, 0xbd, 0x9e, 0x1a, 0x8d, 0xbe,
  0x59, 0xbd, 0xcc, 0xbe, 0xb0, 0x28, 0x76, 0xbe, 0xdb, 0xc2, 0x26, 0xbe,
  0x5a, 0x3a, 0xc6, 0xbe, 0xc0, 0xce, 0x17, 0xbe, 0x01, 0x74, 0x83, 0xbe,
  0x4f, 0x2d, 0xb0, 0x3d, 0x66, 0x1b, 0x60, 0xbe, 0x19, 0xd7, 0x36, 0xbe,
  0x1a, 0x02, 0xa0, 0xbd, 0xb4, 0x50, 0xb7, 0x3d, 0x43, 0x96, 0x17, 0x3e,
  0xba, 0xa0, 0xa3, 0xbe, 0x31, 0x4d, 0x35, 0xbe, 0x45, 0x89, 0x3e, 0x3d,
  0x1f, 0xc2, 0x43, 0xbd, 0x61, 0x16, 0xb7, 0x3d, 0x9a, 0x64, 0x2b, 0xbd,
  0x6e, 0x7e, 0x93, 0x3e, 0xa5, 0x79, 0x8e, 0x3d, 0x0b, 0x48, 0xc4, 0xbb,
  0xcb, 0xfa, 0x9d, 0x3c, 0x98, 0x77, 0x4a, 0xbd, 0xe2, 0xcc, 0x9b, 0xbd,
  0x78, 0x09, 0x84, 0x3d, 0x24, 0x9b, 0xae, 0x3e, 0xcb, 0xfd, 0x2a, 0x3d,
  0x90, 0x68, 0xef, 0x3e, 0x36, 0x99, 0x6a, 0xbd, 0x5f, 0x01, 0xfc, 0xbc,
  0xc4, 0x23, 0x20, 0x3d, 0xbb, 0x4a, 0xa5, 0x3d, 0x0f, 0xd3, 0xf7, 0xbe,
  0xdd, 0xda, 0x61, 0xbe, 0xf1, 0xc7, 0x45, 0xbe, 0x92, 0xc2, 0x5a, 0xbe,
  0x7d, 0x00, 0x26, 0xbe, 0xf4, 0xad, 0x65, 0x3b, 0x60, 0x32, 0x31, 0xbc,
  0xd8, 0x2e, 0x37, 0xbe, 0x23, 0xc5, 0x12, 0x3f, 0xf2, 0x7e, 0x27, 0x3c,
  0xc2, 0x6c, 0xdf, 0x3e, 0xe2, 0x21, 0x06, 0x3e, 0xb3, 0x38, 0xa8, 0x3d,
  0xf5, 0x4c, 0x86, 0xbc, 0x00, 0x1a, 0x03, 0xbc, 0xcf, 0x5a, 0x42, 0x3c,
  0x29, 0x6c, 0xa5, 0xbc, 0xee, 0x24, 0xe8, 0xbc, 0xaf, 0xe6, 0xb1, 0x3c,
  0x7d, 0x48, 0x99, 0xbd, 0x15, 0xda, 0x78, 0x3d, 0x7d, 0x7e, 0x29, 0x3e,
  0x7d, 0x05, 0x26, 0xbe, 0x4a, 0x3f, 0x98, 0x3d, 0x2b, 0x24, 0xbd, 0xbc,
  0xb7, 0x1a, 0xc1, 0xbd, 0x44, 0x4a, 0xc9, 0xbd, 0x97, 0x5c, 0xce, 0xbd,
  0x10, 0xd0, 0x0a, 0x3d, 0x71, 0x70, 0x34, 0x3e, 0x55, 0x19, 0x5b, 0xbe,
  0xfc, 0xe9, 0x3d, 0x3e, 0xc1, 0xf5, 0x09, 0xbe, 0x41, 0x96, 0xc1, 0xbd,
  0x78, 0xf4, 0xe7, 0x3c, 0xd6, 0xb3, 0x3e, 0xbf, 0x96, 0xce, 0x71, 0xbe,
  0xd6, 0xc4, 0x68, 0xbf, 0x4e, 0x18, 0x80, 0xbd, 0x4e, 0x53, 0xf1, 0xbb,
  0xb2, 0x85, 0xe2, 0x3e, 0x7a, 0x9b, 0x73, 0xbd, 0x86, 0x63, 0x35, 0xbf,
  0xb6, 0x93, 0xf0, 0xbe, 0xb7, 0x2e, 0x1d, 0xbe, 0x3b, 0xdd, 0x82, 0xbf,
  0x8f, 0xc5, 0xab, 0xbc, 0x03, 0x3e, 0xd6, 0xbd, 0x23, 0x23, 0x5a, 0x3e,
  0x8c, 0x89, 0x75, 0x3d, 0xae, 0x01, 0x81, 0xbf, 0xe5, 0x43, 0x31, 0xbf,
  0x40, 0x52, 0x2a, 0x3e, 0x57, 0x22, 0x84, 0xbf, 0xeb, 0xf6, 0x49, 0x3d,
  0x0c, 0xad, 0x17, 0x3e, 0x07, 0xd7, 0xce, 0xbd, 0x24, 0xdf, 0x9e, 0x3e,
  0x8d, 0xe6, 0x94, 0xbf, 0xee, 0xde, 0xbd, 0xbe, 0xc8, 0xf4, 0x67, 0xbf,
  0x34, 0xe1, 0x8f, 0xbf, 0x82, 0x12, 0xdd, 0xbd, 0x4b, 0x6d, 0xc7, 0xbe,
  0x4e, 0xdf, 0xff, 0xff, 0x10, 0x00, 0x00, 0x00, 0x08, 0x00, 0x00, 0x00,
  0x1c, 0x00, 0x00, 0x00, 0x38, 0x00, 0x00, 0x00, 0x04, 0x00, 0x00, 0x00,
  0x10, 0x00, 0x00, 0x00, 0x04, 0x00, 0x00, 0x00, 0x01, 0x00, 0x00, 0x00,
  0x08, 0x00, 0x00, 0x00, 0x1a, 0x00, 0x00, 0x00, 0x73, 0x65, 0x71, 0x75,
  0x65, 0x6e, 0x74, 0x69, 0x61, 0x6c, 0x2f, 0x63, 0x6f, 0x6e, 0x76, 0x32,
  0x64, 0x5f, 0x31, 0x2f, 0x43, 0x6f, 0x6e, 0x76, 0x32, 0x44, 0x00, 0x00,
  0x48, 0xdf, 0xff, 0xff, 0x3e, 0xe0, 0xff, 0xff, 0x04, 0x00, 0x00, 0x00,
  0x80, 0x01, 0x00, 0x00, 0x27, 0x4e, 0xc6, 0xbe, 0x20, 0x53, 0x32, 0xbf,
  0x87, 0xbb, 0x37, 0x3e, 0xa4, 0xbf, 0x9e, 0xbe, 0xad, 0x33, 0xc6, 0xbd,
  0x9d, 0xa5, 0x10, 0xbe, 0x14, 0x4d, 0xad, 0xbd, 0xc5, 0xd1, 0x38, 0x3c,
  0x3d, 0xba, 0x25, 0xbe, 0x83, 0x6e, 0x4e, 0xbe, 0x1a, 0x17, 0x24, 0xbd,
  0x0e, 0x57, 0x72, 0x3d, 0x1e, 0xb5, 0xc5, 0x3d, 0xdc, 0xb8, 0x41, 0xbe,
  0x8e, 0xb7, 0xf1, 0xbd, 0x81, 0x33, 0xe5, 0xbe, 0x6b, 0xdb, 0x38, 0xbc,
  0x9e, 0x44, 0x69, 0x3e, 0x46, 0x72, 0x8e, 0xbe, 0x19, 0x95, 0x38, 0xbe,
  0x7f, 0x4f, 0x46, 0xbd, 0x2c, 0xfa, 0x12, 0xbf, 0xa0, 0x40, 0x03, 0xbe,
  0x15, 0x71, 0x48, 0x3d, 0x77, 0x62, 0x86, 0x3e, 0xaa, 0x02, 0xaa, 0x3e,
  0xf6, 0x74, 0x41, 0xbf, 0x3a, 0xb2, 0x48, 0xbf, 0xd7, 0xe6, 0x97, 0xbe,
  0x82, 0xcf, 0x18, 0xbe, 0xab, 0xf5, 0x11, 0xbf, 0xff, 0x94, 0x6b, 0xbd,
  0x80, 0x49, 0xec, 0x3d, 0x95, 0x38, 0xa5, 0xbd, 0xc0, 0x66, 0x20, 0xbd,
  0x88, 0x09, 0x0d, 0x3e, 0x12, 0xca, 0x6d, 0xbd, 0x23, 0x74, 0x99, 0x3d,
  0xfd, 0x26, 0xe1, 0xbe, 0xed, 0x59, 0xce, 0x3d, 0x2c, 0xbe, 0x56, 0xbd,
  0x56, 0x3f, 0xbe, 0xbe, 0x78, 0x5d, 0xf3, 0x3d, 0x2b, 0x70, 0xfe, 0xbe,
  0xd7, 0x4e, 0x42, 0xbe, 0xed, 0xed, 0x5e, 0x3d, 0x15, 0xdb, 0x7e, 0xbe,
  0xc6, 0xfa, 0x83, 0x3c, 0x9c, 0x83, 0xc6, 0x3e, 0xa4, 0xbe, 0x65, 0xbe,
  0xc7, 0xd4, 0xad, 0x3c, 0xdf, 0x80, 0xf8, 0x3d, 0x12, 0x7e, 0x05, 0xbe,
  0x14, 0xe8, 0x8d, 0x3c, 0x9e, 0x63, 0x7f, 0x3e, 0x28, 0x42, 0xee, 0xbc,
  0x59, 0x38, 0x66, 0xbe, 0xc6, 0xea, 0x83, 0x3d, 0x24, 0x89, 0xf3, 0x3d,
  0xb0, 0xe5, 0x8c, 0xbe, 0x0d, 0x69, 0xeb, 0xbe, 0xd4, 0x06, 0x55, 0xbe,
  0xeb, 0x7a, 0xbb, 0xbc, 0x83, 0x03, 0xe9, 0x3d, 0x58, 0x77, 0x48, 0x3d,
  0x04, 0x83, 0x04, 0xbf, 0x9f, 0x1e, 0xbe, 0xbd, 0xc8, 0xfa, 0x7b, 0xbe,
  0x7b, 0xce, 0xa1, 0x3d, 0x73, 0xd7, 0x12, 0xbf, 0xd7, 0x38, 0x11, 0x3e,
  0xf8, 0xe9, 0x8a, 0x3d, 0x2c, 0xd5, 0x22, 0xbe, 0x3b, 0x50, 0xe9, 0x3d,
  0x55, 0xc9, 0xd1, 0xbd, 0xbc, 0x4f, 0x72, 0xbe, 0x24, 0x4b, 0x1a, 0xbe,
  0xeb, 0x2b, 0x0c, 0xbe, 0xe5, 0x31, 0xdf, 0xbe, 0x78, 0x7f, 0x7e, 0x3d,
  0x23, 0xcc, 0x19, 0xbe, 0xb6, 0x56, 0x88, 0xbe, 0x1f, 0x7d, 0x26, 0x3c,
  0x30, 0x79, 0x66, 0xbe, 0x14, 0x0a, 0x78, 0x3e, 0x5b, 0x37, 0x37, 0xbe,
  0x81, 0x3e, 0x5a, 0xbe, 0x21, 0x6e, 0xc8, 0x3e, 0x77, 0x21, 0xd5, 0xbc,
  0x6a, 0x45, 0x8a, 0xbd, 0xd6, 0xea, 0x91, 0x3d, 0x65, 0x7a, 0x1e, 0x3e,
  0x6f, 0x13, 0x18, 0xbe, 0x34, 0x5b, 0x8f, 0x3e, 0x19, 0x91, 0x0f, 0xbe,
  0xd5, 0x41, 0x04, 0xbe, 0x26, 0xe1, 0xff, 0xff, 0x10, 0x00, 0x00, 0x00,
  0x07, 0x00, 0x00, 0x00, 0x1c, 0x00, 0x00, 0x00, 0x38, 0x00, 0x00, 0x00,
  0x04, 0x00, 0x00, 0x00, 0x08, 0x00, 0x00, 0x00, 0x04, 0x00, 0x00, 0x00,
  0x03, 0x00, 0x00, 0x00, 0x01, 0x00, 0x00, 0x00, 0x18, 0x00, 0x00, 0x00,
  0x73, 0x65, 0x71, 0x75, 0x65, 0x6e, 0x74, 0x69, 0x61, 0x6c, 0x2f, 0x63,
  0x6f, 0x6e, 0x76, 0x32, 0x64, 0x2f, 0x43, 0x6f, 0x6e, 0x76, 0x32, 0x44,
  0x00, 0x00, 0x00, 0x00, 0x20, 0xe1, 0xff, 0xff, 0x16, 0xe2, 0xff, 0xff,
  0x04, 0x00, 0x00, 0x00, 0x80, 0x00, 0x00, 0x00, 0xcf, 0x83, 0x12, 0x3e,
  0x48, 0xa0, 0x80, 0x3d, 0xda, 0x28, 0x60, 0xbd, 0x3d, 0x94, 0x68, 0x3d,
  0x72, 0x6f, 0xc7, 0xbe, 0xc9, 0xef, 0x93, 0xbe, 0xbb, 0xf0, 0x0f, 0x3e,
  0x00, 0x0c, 0xd3, 0x3e, 0x98, 0xb3, 0xce, 0x3e, 0x1f, 0x47, 0xbc, 0x3e,
  0xef, 0x4d, 0x93, 0xbe, 0x32, 0x1e, 0x62, 0x3e, 0x48, 0x84, 0x1a, 0xbd,
  0x4c, 0xcf, 0x0c, 0x3e, 0xee, 0x54, 0xbc, 0x3d, 0xb7, 0x84, 0x71, 0x3d,
  0x95, 0xc3, 0x85, 0xbb, 0x00, 0xf8, 0xa2, 0x3e, 0xba, 0x6b, 0xd6, 0xbd,
  0xbf, 0x02, 0xa8, 0x3d, 0x7b, 0x4a, 0x4e, 0xbe, 0xed, 0xd1, 0x46, 0xbe,
  0xe7, 0xd1, 0xb2, 0x3d, 0xf0, 0x30, 0xe6, 0x3e, 0x7a, 0x6d, 0x7a, 0x3e,
  0x5e, 0x3f, 0x9d, 0x3e, 0x9a, 0xff, 0x0c, 0xbe, 0x0c, 0xa7, 0x84, 0x3e,
  0x03, 0xec, 0xcc, 0xbe, 0x7f, 0xee, 0xbf, 0x3d, 0x7a, 0xd2, 0x78, 0x3c,
  0xdd, 0x83, 0xae, 0xbb, 0xfe, 0xe1, 0xff, 0xff, 0x10, 0x00, 0x00, 0x00,
  0x06, 0x00, 0x00, 0x00, 0x14, 0x00, 0x00, 0x00, 0x30, 0x00, 0x00, 0x00,
  0x02, 0x00, 0x00, 0x00, 0x02, 0x00, 0x00, 0x00, 0x10, 0x00, 0x00, 0x00,
  0x19, 0x00, 0x00, 0x00, 0x73, 0x65, 0x71, 0x75, 0x65, 0x6e, 0x74, 0x69,
  0x61, 0x6c, 0x2f, 0x64, 0x65, 0x6e, 0x73, 0x65, 0x5f, 0x31, 0x2f, 0x4d,
  0x61, 0x74, 0x4d, 0x75, 0x6c, 0x00, 0x00, 0x00, 0xf0, 0xe1, 0xff, 0xff,
  0xe6, 0xe2, 0xff, 0xff, 0x04, 0x00, 0x00, 0x00, 0x00, 0x1c, 0x00, 0x00,
  0x38, 0x74, 0xf1, 0xbc, 0x4a, 0x31, 0x65, 0xbd, 0xcb, 0xf7, 0xe6, 0xbd,
  0x96, 0x80, 0x0d, 0x3e, 0x71, 0xe1, 0x72, 0xbd, 0x26, 0xbd, 0x99, 0x3d,
  0xf7, 0x01, 0x8a, 0x3d, 0x45, 0x7b, 0x90, 0xbd, 0x16, 0x63, 0x56, 0xbc,
  0xfd, 0x94, 0x2c, 0x3e, 0xad, 0x86, 0xee, 0x3c, 0x97, 0x80, 0x27, 0x3a,
  0x1d, 0x6c, 0x8a, 0x3e, 0x13, 0xb8, 0x46, 0x3c, 0x8f, 0x36, 0xd9, 0x3d,
  0x4e, 0xeb, 0x22, 0x3d, 0x0c, 0xbf, 0x23, 0xbd, 0x7a, 0x94, 0x0c, 0xbe,
  0xa2, 0xa0, 0xf0, 0xbd, 0x4c, 0xde, 0x82, 0xbe, 0x1c, 0x71, 0x81, 0xbe,
  0xc5, 0x1d, 0x91, 0x3d, 0x37, 0x28, 0x84, 0xbe, 0xba, 0x7f, 0xbd, 0xbe,
  0x5a, 0x9d, 0xb3, 0x3d, 0xfa, 0x61, 0x9a, 0x3e, 0x6c, 0x74, 0x0c, 0xbe,
  0x40, 0xba, 0x09, 0x3e, 0xc7, 0x69, 0x66, 0xbd, 0xc8, 0xa2, 0x38, 0xbe,
  0xd4, 0xaa, 0xd0, 0x3d, 0x3f, 0x67, 0x5c, 0xbe, 0xbd, 0x15, 0xd6, 0x3d,
  0xaa, 0xa9, 0x75, 0x3d, 0xcd, 0xad, 0xae, 0xbd, 0xc4, 0xf2, 0x9b, 0xbe,
  0x2d, 0x36, 0x01, 0x3e, 0x50, 0xba, 0x32, 0xbe, 0x44, 0x6d, 0x05, 0xbd,
  0x1f, 0xd8, 0xa8, 0xbe, 0xbf, 0xa5, 0x47, 0x3c, 0x03, 0xe2, 0x53, 0xbe,
  0x46, 0xdc, 0x98, 0xbe, 0x17, 0x08, 0x7c, 0xbd, 0x6a, 0xf1, 0x30, 0xbe,
  0x3b, 0xfe, 0x12, 0xbe, 0x2f, 0xd0, 0x33, 0x3d, 0xc0, 0x63, 0x4e, 0xbe,
  0xfd, 0x0c, 0x03, 0xbe, 0x4c, 0x95, 0xae, 0x3c, 0x8f, 0xdc, 0x21, 0xbe,
  0xa0, 0x8d, 0x9d, 0x3d, 0x97, 0x88, 0x80, 0xbe, 0x64, 0xfa, 0x78, 0xbc,
  0x2e, 0xbe, 0xee, 0xbb, 0xf1, 0xb6, 0xa9, 0xbd, 0x47, 0x15, 0x2e, 0x3e,
  0x77, 0x8a, 0x02, 0x3e, 0x4b, 0xb9, 0x6f, 0xbe, 0x17, 0xfb, 0x13, 0xbe,
  0x0f, 0x87, 0x61, 0x3e, 0x6d, 0xfe, 0x81, 0xbe, 0xd8, 0xcd, 0x09, 0xbe,
  0x71, 0xb3, 0x3f, 0x3d, 0x82, 0xb0, 0x9b, 0x3d, 0x55, 0xbe, 0x8c, 0xbd,
  0xb4, 0x4e, 0x43, 0xbb, 0xd0, 0xe4, 0x15, 0xbe, 0x37, 0x13, 0xc5, 0xba,
  0x3e, 0xb1, 0x2f, 0xbd, 0xd7, 0x0d, 0x10, 0x3c, 0xe1, 0x79, 0xe7, 0xbd,
  0xad, 0x1a, 0x24, 0x3d, 0x2a, 0xb8, 0x45, 0x3c, 0xdd, 0x29, 0xa6, 0x3d,
  0xe4, 0x81, 0x0f, 0xbe, 0x99, 0x85, 0x15, 0x3c, 0x0c, 0x5e, 0x10, 0xbe,
  0xc2, 0x8a, 0x8f, 0x3d, 0x59, 0xca, 0xa7, 0xbe, 0xe2, 0x82, 0xc0, 0xbd,
  0xd2, 0x87, 0x98, 0x3d, 0x0e, 0x27, 0xac, 0xbe, 0xd8, 0x32, 0x3b, 0xbe,
  0x1c, 0x87, 0x1b, 0xbe, 0xbf, 0xb5, 0xd1, 0x3d, 0xdb, 0x02, 0x5e, 0xbc,
  0xd1, 0xa9, 0x85, 0xbe, 0xd8, 0x75, 0x24, 0x3d, 0x49, 0xc0, 0x50, 0x3e,
  0xc9, 0x00, 0x8a, 0xbe, 0xf0, 0x0c, 0x0b, 0xbe, 0x69, 0x44, 0xd2, 0x3c,
  0xed, 0x06, 0x88, 0x3d, 0x21, 0x25, 0x36, 0xbe, 0x15, 0x5b, 0x5b, 0xbd,
  0x76, 0x36, 0x08, 0xbe, 0xf9, 0x62, 0xdc, 0xbe, 0x37, 0xfd, 0x7f, 0xbe,
  0x16, 0x8b, 0xfc, 0xbd, 0xc2, 0xf3, 0x61, 0xbe, 0xc9, 0x1c, 0x30, 0xbc,
  0x1c, 0xb8, 0x08, 0xbe, 0x85, 0x09, 0xfb, 0x3d, 0xfd, 0xac, 0xe7, 0xbd,
  0x05, 0xb7, 0x0c, 0xbe, 0x95, 0x6b, 0x23, 0xbe, 0x11, 0xf5, 0xbb, 0xbd,
  0xcf, 0x24, 0x15, 0x3f, 0x13, 0x8c, 0x9b, 0x3e, 0xb7, 0x08, 0xe8, 0x3d,
  0x3e, 0xc1, 0x52, 0xbe, 0x67, 0x2e, 0x12, 0xbf, 0x0b, 0x92, 0x8a, 0xbe,
  0x3a, 0xd5, 0x1b, 0xbf, 0x12, 0x33, 0x19, 0xbf, 0x6c, 0x64, 0x15, 0xbe,
  0x44, 0x44, 0x3f, 0xbe, 0xf3, 0xbc, 0x35, 0xbe, 0x18, 0x78, 0x49, 0xbe,
  0xe5, 0x39, 0xff, 0xbe, 0x74, 0x96, 0x9a, 0xbd, 0x7b, 0x5b, 0xed, 0x3b,
  0xd1, 0x68, 0x7e, 0xbe, 0xb4, 0x81, 0x63, 0x3e, 0x96, 0xbd, 0x39, 0xbd,
  0x67, 0x3b, 0x9b, 0xbe, 0x37, 0x67, 0x29, 0xbe, 0xfa, 0x01, 0x62, 0xbe,
  0xbe, 0xba, 0x21, 0x3d, 0x26, 0xde, 0x40, 0xbd, 0x07, 0x24, 0x29, 0xbe,
  0x49, 0x23, 0x00, 0x3d, 0xe8, 0x1a, 0xc4, 0xbe, 0x5d, 0x33, 0xa5, 0x3d,
  0x64, 0x28, 0x53, 0xbe, 0x93, 0x61, 0x66, 0xbe, 0x44, 0x1a, 0x5f, 0xbd,
  0xe3, 0x17, 0x69, 0x3d, 0x8d, 0x6f, 0x61, 0x3e, 0xb8, 0x02, 0x95, 0x3c,
  0x51, 0xfd, 0x88, 0xbd, 0xcb, 0x24, 0xcc, 0xbd, 0x67, 0x73, 0x29, 0x3d,
  0x28, 0x80, 0x1c, 0x3d, 0x6e, 0xcf, 0x8c, 0xbd, 0xd8, 0x68, 0xa8, 0xbe,
  0xc1, 0x57, 0x83, 0xbd, 0x76, 0xe3, 0xee, 0xbd, 0x1c, 0x26, 0x74, 0xbe,
  0xe8, 0x21, 0x9c, 0x3e, 0xd8, 0x00, 0xd5, 0xbe, 0x11, 0x4a, 0xca, 0xbd,
  0x2e, 0x48, 0x75, 0xbe, 0x48, 0x6d, 0x0b, 0x3e, 0x69, 0xe7, 0xd4, 0xbd,
  0x62, 0x71, 0x3b, 0xbe, 0xf4, 0xb0, 0x00, 0x3e, 0x3f, 0xa6, 0xf0, 0xbd,
  0x5e, 0x87, 0x70, 0xbe, 0xfd, 0xf0, 0x35, 0xbd, 0xe2, 0x41, 0x22, 0xbe,
  0x1e, 0xa8, 0x0b, 0x3e, 0x6a, 0x4d, 0x9f, 0x3d, 0xb2, 0x14, 0x20, 0xbd,
  0xad, 0x3a, 0xbf, 0xbc, 0xce, 0xc0, 0x89, 0x3e, 0xa2, 0x76, 0x5e, 0xbe,
  0xd6, 0x7c, 0x1b, 0x3d, 0x87, 0x27, 0x26, 0x3e, 0x72, 0xfb, 0x60, 0xbd,
  0x68, 0x43, 0x0e, 0x3d, 0xd7, 0x7c, 0x52, 0x3d, 0x22, 0x6e, 0xbb, 0xbc,
  0x97, 0x05, 0xf7, 0xbd, 0xcd, 0xe3, 0x4d, 0xbd, 0xfd, 0x7d, 0x94, 0x3c,
  0xc3, 0x31, 0x02, 0xbe, 0x28, 0x6f, 0x1f, 0xbd, 0xc3, 0x50, 0x42, 0x3e,
  0xe0, 0x87, 0x60, 0x3c, 0x1b, 0xe8, 0x8f, 0xbd, 0x02, 0x21, 0x33, 0x3e,
  0x98, 0xfd, 0x49, 0xbe, 0xc2, 0x50, 0xe7, 0x3b, 0xa1, 0xa1, 0x7c, 0xbd,
  0xb4, 0x9c, 0xc4, 0x3d, 0xa6, 0x1d, 0x7b, 0x3e, 0x02, 0xf2, 0xda, 0x3d,
  0x7c, 0x4f, 0xd2, 0xbd, 0xd4, 0xeb, 0x42, 0xbb, 0x98, 0x4a, 0xde, 0x3c,
  0xa3, 0x8e, 0xa7, 0x3e, 0x90, 0xcc, 0x6c, 0xbe, 0xc7, 0x6b, 0xb4, 0x3d,
  0x0e, 0x41, 0x75, 0x3e, 0x96, 0xde, 0x07, 0x3c, 0x4e, 0xc3, 0x43, 0xbe,
  0x7a, 0xbd, 0x02, 0xbe, 0xe1, 0x93, 0xb9, 0xbd, 0x06, 0x59, 0xea, 0x3d,
  0x47, 0x71, 0x67, 0x3d, 0x00, 0x8d, 0xa3, 0x3b, 0xb6, 0x2e, 0xcf, 0x3d,
  0x71, 0xaa, 0xae, 0x3c, 0x4a, 0xe5, 0xa9, 0xbe, 0x74, 0x94, 0x38, 0x3d,
  0x03, 0x2d, 0x7c, 0x3e, 0xd5, 0x5e, 0x38, 0x3d, 0x34, 0x00, 0x79, 0xbe,
  0x9a, 0x49, 0x69, 0x3d, 0x9e, 0x55, 0x95, 0x3d, 0x08, 0xe7, 0x4f, 0x3e,
  0x5d, 0xfc, 0xb7, 0x3d, 0x92, 0x16, 0x93, 0xbe, 0xef, 0x99, 0x05, 0xbe,
  0xc1, 0x11, 0x06, 0xbe, 0x03, 0x4b, 0x18, 0x3e, 0x07, 0xf1, 0x91, 0x3c,
  0xaf, 0x99, 0x6a, 0x3e, 0xeb, 0x06, 0x91, 0x3d, 0xe9, 0xfd, 0x42, 0xbc,
  0xb4, 0xbe, 0x12, 0xbe, 0xa6, 0xc7, 0x04, 0x3e, 0x35, 0xe8, 0x58, 0xbe,
  0xe8, 0xa8, 0x50, 0xbe, 0x54, 0xc1, 0x81, 0xbe, 0xdf, 0x39, 0x73, 0x3e,
  0x1a, 0x8f, 0x6f, 0xbe, 0x3a, 0xcc, 0x15, 0x3f, 0x9f, 0x56, 0x2b, 0x3e,
  0xf3, 0xf0, 0x98, 0xbe, 0x61, 0x8b, 0xb8, 0xbd, 0x01, 0x4d, 0x83, 0x3e,
  0x90, 0x55, 0xfe, 0xbe, 0xd7, 0x96, 0x00, 0xbf, 0x8f, 0x98, 0xef, 0x3e,
  0x69, 0xd1, 0x17, 0xbe, 0xdb, 0x5c, 0x4d, 0xbe, 0xe5, 0x93, 0x05, 0xbf,
  0xcd, 0x3a, 0x51, 0xbe, 0x57, 0x51, 0x56, 0xbe, 0x4b, 0xef, 0xa2, 0xbe,
  0x5c, 0x62, 0x38, 0x3e, 0x6a, 0x5a, 0xdb, 0xbd, 0x70, 0x3d, 0x04, 0x3f,
  0x2d, 0xd3, 0x2e, 0x3c, 0x14, 0x8a, 0x32, 0x3d, 0x05, 0x43, 0x80, 0xbe,
  0xfc, 0x04, 0x87, 0x3d, 0x42, 0x57, 0x33, 0xbe, 0xc4, 0x6f, 0x4d, 0x3e,
  0xa0, 0xc0, 0xf4, 0x3d, 0x49, 0x9c, 0x7c, 0x3b, 0xaf, 0xca, 0x71, 0x3e,
  0x42, 0x3c, 0xd4, 0xbd, 0xd6, 0xd4, 0x98, 0xbe, 0xf1, 0xdb, 0xfe, 0xbd,
  0x55, 0x40, 0xae, 0xbd, 0x93, 0x3d, 0xea, 0x3d, 0x06, 0xe2, 0x4a, 0x3e,
  0x5c, 0x9d, 0x7e, 0x3c, 0xd9, 0x27, 0xe2, 0x3b, 0x3c, 0xff, 0x14, 0x3e,
  0xf6, 0x4a, 0xc4, 0x3d, 0xf1, 0x01, 0xcb, 0xba, 0xb1, 0xac, 0xf7, 0x3c,
  0xaf, 0xcb, 0x44, 0x3e, 0x06, 0xdc, 0x6f, 0x3d, 0x9a, 0x9c, 0x59, 0xbb,
  0x56, 0x0b, 0xf8, 0xbb, 0xde, 0x0d, 0xbe, 0x3d, 0x90, 0x64, 0x55, 0xbc,
  0x38, 0x37, 0x35, 0x3c, 0xd9, 0x01, 0x07, 0xbd, 0x57, 0xf2, 0xa6, 0x3d,
  0x07, 0xa5, 0x13, 0xbe, 0x64, 0x4f, 0x13, 0xbc, 0x0a, 0xbb, 0x36, 0xbe,
  0x59, 0xb2, 0x6b, 0x3c, 0x05, 0x73, 0x4c, 0xbd, 0xee, 0x27, 0xf8, 0x3d,
  0xbe, 0xec, 0xff, 0xbd, 0xe7, 0xff, 0xc7, 0x3d, 0x78, 0xdd, 0x61, 0x3e,
  0x3a, 0xdc, 0x9c, 0xbd, 0xfe, 0x01, 0x34, 0xbe, 0x00, 0x83, 0x26, 0x3d,
  0x31, 0xb6, 0x8f, 0xbe, 0xd7, 0x55, 0x5d, 0xbd, 0x0b, 0xdf, 0xdb, 0x3d,
  0xaf, 0xa0, 0x94, 0x3d, 0xd1, 0x42, 0xc3, 0xbd, 0x68, 0xbb, 0x0c, 0x3e,
  0x8c, 0xdd, 0x58, 0xbd, 0x5c, 0x77, 0x9a, 0xbd, 0x86, 0x5c, 0x9a, 0x3c,
  0xb1, 0x77, 0x52, 0xbd, 0xa6, 0xa6, 0xab, 0xbe, 0xb5, 0x1e, 0x92, 0x3d,
  0xda, 0x9a, 0x90, 0x3d, 0xc6, 0x73, 0x7e, 0xba, 0xb7, 0xa5, 0x17, 0xbd,
  0xfb, 0xed, 0xb8, 0xbb, 0x92, 0xa2, 0x95, 0xbe, 0xcb, 0x27, 0xda, 0xbc,
  0x60, 0x1b, 0x47, 0x3d, 0x5f, 0x02, 0xc0, 0xbd, 0x07, 0xf6, 0x8d, 0x3d,
  0x22, 0x86, 0xc6, 0x3e, 0x36, 0xfb, 0x52, 0xbe, 0x3c, 0xb3, 0x66, 0x3e,
  0x67, 0x75, 0x48, 0xbe, 0x58, 0xbb, 0x6a, 0x3e, 0xbf, 0x47, 0x4d, 0xbe,
  0xbe, 0xd5, 0xa7, 0x3b, 0x09, 0xad, 0xa4, 0xbd, 0x2b, 0x34, 0x7c, 0x3e,
  0x44, 0x4f, 0xd2, 0xbd, 0xa6, 0x73, 0x08, 0xbe, 0xa4, 0x23, 0xb3, 0xbe,
  0xc1, 0xb4, 0x44, 0x3d, 0x0a, 0xdc, 0x33, 0xbe, 0x04, 0xf3, 0x3d, 0xbe,
  0x37, 0x14, 0xc7, 0x3b, 0xd0, 0x2c, 0x94, 0x3e, 0x6a, 0x7d, 0x79, 0x3e,
  0x60, 0x20, 0x13, 0x3e, 0x0c, 0x0d, 0xe5, 0x3d, 0xbf, 0xe0, 0x0a, 0xbd,
  0x2c, 0xc0, 0x9a, 0x3d, 0xe3, 0x91, 0xf6, 0x3d, 0xdd, 0x88, 0xd8, 0x3e,
  0x69, 0x4b, 0x06, 0x3e, 0x67, 0x72, 0x28, 0x3e, 0x07, 0x0f, 0x1a, 0xbf,
  0xd3, 0x41, 0x17, 0x3e, 0x8c, 0x94, 0xc0, 0x3d, 0x89, 0xd9, 0x7d, 0x3e,
  0x04, 0x12, 0x87, 0xbe, 0x48, 0x5a, 0xca, 0x3d, 0x1d, 0x77, 0x40, 0xbf,
  0xd2, 0xfd, 0x36, 0xbe, 0x49, 0xc5, 0xfe, 0x3d, 0x39, 0x31, 0x3c, 0x3e,
  0x5e, 0x36, 0x3c, 0xbf, 0x29, 0x9f, 0x10, 0x3e, 0xdb, 0xf6, 0x29, 0x3e,
  0x9f, 0xb2, 0x04, 0xbf, 0xa4, 0xfc, 0x43, 0xbd, 0xe4, 0x34, 0x1f, 0x3e,
  0xf7, 0x81, 0xb4, 0x3e, 0x8c, 0xe6, 0x1e, 0x3e, 0x65, 0x74, 0x8f, 0x3c,
  0x77, 0x4f, 0x7a, 0xbd, 0xb3, 0xed, 0x22, 0x3e, 0xf1, 0xfb, 0x11, 0xbd,
  0x65, 0x93, 0xa0, 0xbb, 0xa9, 0x64, 0x50, 0x3e, 0x1b, 0xe8, 0xb5, 0xbd,
  0x7c, 0xb0, 0xa7, 0x3d, 0x09, 0x5b, 0x8a, 0xbe, 0x95, 0x3b, 0x88, 0xbd,
  0xa8, 0x74, 0x66, 0xbd, 0x75, 0xaf, 0x1d, 0x3d, 0x3c, 0xad, 0x93, 0xbd,
  0x3e, 0x94, 0x41, 0xbe, 0x3d, 0xfc, 0xa9, 0x3e, 0x43, 0x58, 0xfb, 0xbd,
  0xbf, 0x3c, 0xff, 0xbd, 0x96, 0x86, 0x08, 0xbe, 0x59, 0x30, 0x1f, 0x3b,
  0x22, 0xd2, 0x1d, 0x3d, 0x78, 0x2b, 0x22, 0x3c, 0x4f, 0x84, 0x05, 0x3f,
  0x17, 0x07, 0xab, 0xbd, 0x08, 0x84, 0xbb, 0xbd, 0x74, 0x77, 0xd4, 0xbc,
  0xf6, 0x2e, 0x88, 0xbd, 0x56, 0xaf, 0x1a, 0xbd, 0x67, 0x65, 0x07, 0xbd,
  0x02, 0x3b, 0x54, 0x3e, 0xab, 0x5e, 0xb8, 0x3a, 0x72, 0xbe, 0x26, 0x3e,
  0x10, 0xbf, 0x4d, 0xbd, 0xf5, 0x27, 0x3f, 0xbe, 0x2a, 0x9b, 0x01, 0xbe,
  0x1b, 0x0c, 0xc1, 0x3d, 0x4f, 0x3f, 0xe3, 0x3d, 0x53, 0x73, 0x7b, 0x3d,
  0x40, 0x3c, 0x0e, 0x3f, 0x9c, 0x30, 0x2f, 0x3d, 0xf1, 0x7e, 0x70, 0x3c,
  0x35, 0x8c, 0xce, 0x3d, 0x22, 0xd9, 0x74, 0x3d, 0x90, 0x30, 0x6f, 0xbe,
  0xeb, 0x14, 0x3e, 0xbd, 0x79, 0x13, 0x1a, 0x3e, 0x72, 0xa1, 0xbe, 0xbd,
  0x19, 0xd2, 0x51, 0x3e, 0x50, 0x42, 0xc4, 0x3d, 0x60, 0x92, 0xd1, 0xbd,
  0xda, 0x12, 0x8c, 0x3d, 0x5d, 0xce, 0xf7, 0x3d, 0xd3, 0x77, 0xd2, 0xbd,
  0x66, 0x81, 0xcc, 0x3c, 0x7b, 0x5e, 0x3d, 0x3e, 0x38, 0x98, 0x49, 0x3d,
  0x13, 0x19, 0x26, 0xbd, 0x73, 0xf0, 0x0d, 0xbe, 0xb7, 0x25, 0xcd, 0x3d,
  0x60, 0x9f, 0x44, 0xbe, 0x66, 0x15, 0x39, 0xbc, 0xae, 0x0d, 0x28, 0xbc,
  0x45, 0xd2, 0x30, 0x3d, 0xe5, 0x8a, 0x9a, 0x3d, 0x51, 0x1e, 0x0c, 0x3e,
  0x0f, 0x47, 0x8f, 0x3d, 0x67, 0x69, 0x71, 0xbc, 0x52, 0x08, 0xb4, 0x3e,
  0x0b, 0xd0, 0xfc, 0x3c, 0x81, 0x53, 0x0f, 0xbe, 0xc7, 0xee, 0xff, 0xbe,
  0x2a, 0xc9, 0x95, 0x3d, 0x0d, 0xe2, 0x11, 0xbe, 0x4e, 0xb0, 0x07, 0xbe,
  0x82, 0xcb, 0xdb, 0xbc, 0xa3, 0xa8, 0x02, 0xbe, 0x01, 0x84, 0xbe, 0x3d,
  0x82, 0x90, 0x02, 0xbe, 0xaa, 0x10, 0x2a, 0x3e, 0xc5, 0xe5, 0x88, 0x3e,
  0xbe, 0x99, 0x4b, 0xbd, 0x54, 0xfe, 0xa4, 0x3e, 0x3e, 0xc2, 0xdb, 0x3d,
  0xa4, 0x26, 0x6f, 0xbd, 0x8e, 0xdb, 0x81, 0xbc, 0x8c, 0x10, 0x1a, 0xbf,
  0xf9, 0xae, 0x9d, 0x3b, 0x6c, 0xf9, 0x97, 0x3d, 0x4e, 0x56, 0x89, 0xbd,
  0xaf, 0x84, 0xfd, 0xbe, 0x0d, 0xb2, 0xeb, 0x3d, 0x68, 0x14, 0x7d, 0x3e,
  0x37, 0xe4, 0x54, 0xbf, 0xe6, 0x3e, 0xa0, 0xbc, 0xd1, 0x40, 0x3c, 0xbe,
  0xc1, 0x92, 0x8f, 0xbc, 0x59, 0xc5, 0x3c, 0xbf, 0x4d, 0x99, 0xe2, 0xbd,
  0x04, 0x79, 0xd4, 0xbe, 0x9c, 0x75, 0xd3, 0xbe, 0x08, 0x58, 0x54, 0xbe,
  0x96, 0xcb, 0x60, 0xbe, 0xbd, 0x70, 0x7e, 0xbe, 0x9b, 0x5c, 0x96, 0xbe,
  0x12, 0x80, 0xd3, 0xbe, 0xe1, 0x57, 0xc6, 0xbd, 0x86, 0xfc, 0x05, 0xbf,
  0xe7, 0x73, 0xd1, 0xbe, 0x36, 0x54, 0x31, 0x3e, 0x5a, 0x53, 0xa7, 0xbd,
  0x07, 0xc5, 0xec, 0xbe, 0x8e, 0x58, 0x45, 0x3e, 0xe7, 0x15, 0xa4, 0xbe,
  0x9f, 0x24, 0x58, 0x3e, 0xa9, 0xa7, 0xc6, 0xbe, 0x65, 0x81, 0x5c, 0xbd,
  0x6b, 0xb8, 0x4d, 0x3d, 0x86, 0xa5, 0xe2, 0xbd, 0xcb, 0xb7, 0xac, 0x3e,
  0x53, 0x0f, 0xb3, 0xbe, 0x30, 0x0f, 0x0f, 0x3e, 0x57, 0x84, 0xbd, 0xbd,
  0x5e, 0xc0, 0xcf, 0xbd, 0x5b, 0x7d, 0x4a, 0xba, 0xa1, 0x21, 0x80, 0xbc,
  0x9b, 0xae, 0xa5, 0xbd, 0x7f, 0x25, 0x35, 0xbe, 0x02, 0xb8, 0xa2, 0xbd,
  0xe1, 0xab, 0x5b, 0xbe, 0x9f, 0x8d, 0x5f, 0xbe, 0x4a, 0x24, 0xa6, 0xbc,
  0xb8, 0xc1, 0xfe, 0xbd, 0xd6, 0x59, 0xc7, 0xbc, 0x4e, 0xee, 0x69, 0xbe,
  0x31, 0x71, 0xbf, 0x3e, 0x8e, 0x2a, 0x60, 0xbe, 0x13, 0x22, 0x63, 0xbe,
  0x50, 0x4b, 0x32, 0xbc, 0x45, 0xc1, 0x76, 0x3c, 0xc6, 0x87, 0xea, 0x3d,
  0x37, 0xf3, 0x5c, 0xbd, 0x21, 0x2b, 0xdc, 0xbd, 0x35, 0xd0, 0xaf, 0xbd,
  0xf4, 0xde, 0x81, 0xbe, 0xb8, 0x73, 0x05, 0x3e, 0x4c, 0x0f, 0x86, 0xbd,
  0x0a, 0x28, 0x5d, 0x3c, 0x4e, 0x83, 0x17, 0xbe, 0x64, 0x92, 0x81, 0xbd,
  0x9b, 0xe8, 0x2c, 0x3e, 0xbe, 0xe2, 0x47, 0x3e, 0x4f, 0x9b, 0x78, 0xbe,
  0xb2, 0xbc, 0x7d, 0xbe, 0x09, 0x96, 0x9d, 0x3c, 0x8c, 0xa6, 0xb9, 0xbc,
  0x2d, 0xff, 0xce, 0xbd, 0xf4, 0xaa, 0x3d, 0xbd, 0x82, 0xc1, 0x82, 0xba,
  0xac, 0x58, 0xd5, 0x3d, 0x9b, 0x89, 0xf9, 0xbd, 0x62, 0xfb, 0x8b, 0x3d,
  0xce, 0xb0, 0x08, 0x3e, 0x7f, 0x93, 0x70, 0x3e, 0x4e, 0xa3, 0xb6, 0x3d,
  0xa8, 0x52, 0x01, 0xbe, 0x81, 0xc9, 0x3b, 0x3d, 0x5d, 0x14, 0xb8, 0x3d,
  0x27, 0x14, 0x22, 0xbd, 0x82, 0xf7, 0x15, 0x3c, 0xbb, 0xd2, 0x0c, 0x3e,
  0x98, 0xd9, 0x97, 0xbd, 0x99, 0xae, 0xa2, 0x3e, 0xe9, 0xbf, 0x55, 0x3d,
  0x82, 0xf0, 0x80, 0xbe, 0xc6, 0x27, 0x26, 0x3e, 0x49, 0xc0, 0x8b, 0x3d,
  0x36, 0x27, 0xc0, 0x3e, 0xaf, 0x19, 0x43, 0x3c, 0x86, 0x5c, 0xfd, 0x3d,
  0x14, 0x6f, 0x47, 0x3e, 0x7c, 0x11, 0x0a, 0xbe, 0x84, 0x17, 0xe3, 0xbd,
  0x5a, 0xf1, 0x63, 0xbc, 0x59, 0x05, 0xb9, 0xbb, 0x42, 0x18, 0xce, 0x3c,
  0x57, 0xee, 0xfe, 0xbd, 0x69, 0x71, 0xfa, 0x3d, 0x6a, 0xcd, 0x06, 0xbc,
  0xd5, 0xc3, 0xc3, 0x3d, 0xad, 0xdd, 0x6b, 0xbe, 0x01, 0x05, 0x96, 0x3e,
  0x7f, 0xe9, 0x06, 0xbd, 0xed, 0xb5, 0xea, 0x3d, 0x84, 0xe9, 0x32, 0xbe,
  0x66, 0x75, 0xe5, 0x3d, 0xbe, 0xd7, 0x47, 0x3c, 0x7a, 0x00, 0xd7, 0x3d,
  0x9f, 0x7f, 0xff, 0x3d, 0x26, 0xee, 0x7c, 0xbe, 0x3b, 0xa2, 0xe9, 0xbd,
  0xc0, 0x79, 0x28, 0xbd, 0x40, 0x5a, 0x35, 0x3e, 0x5d, 0x30, 0x52, 0x3e,
  0xee, 0x0d, 0x98, 0x3e, 0x18, 0x7a, 0x3f, 0xbd, 0xef, 0x8d, 0x89, 0xbc,
  0x49, 0x62, 0x21, 0xbd, 0xb7, 0x00, 0x51, 0x3e, 0xa6, 0xb1, 0x3d, 0x3e,
  0x64, 0xaf, 0x50, 0x3e, 0xb4, 0x06, 0xd4, 0xbd, 0x2b, 0xa6, 0x9b, 0xbd,
  0x4b, 0x26, 0x9e, 0xbd, 0x82, 0xa4, 0x81, 0xbc, 0xad, 0xa8, 0x24, 0xbe,
  0x4b, 0x54, 0x5f, 0xbb, 0x5b, 0xcd, 0x80, 0x3d, 0x66, 0xd4, 0x31, 0xbd,
  0x39, 0xa1, 0x1e, 0xbe, 0xc2, 0xcb, 0x18, 0xbe, 0x0e, 0x49, 0xb5, 0xbe,
  0xe9, 0xd4, 0x2a, 0xbe, 0xcb, 0x22, 0x51, 0x3d, 0x3f, 0x89, 0x7c, 0x3e,
  0x77, 0x65, 0x3d, 0x3b, 0x9d, 0x9a, 0xaf, 0xbc, 0xaf, 0x0b, 0xb6, 0xbd,
  0x45, 0x29, 0x03, 0x3e, 0x52, 0x51, 0x43, 0xbc, 0xda, 0xa8, 0x22, 0xbd,
  0xf6, 0xfe, 0xdf, 0x3e, 0x54, 0xe8, 0x25, 0xbd, 0x06, 0xd1, 0x59, 0x3e,
  0x71, 0xbc, 0x36, 0xbc, 0x95, 0x5d, 0xed, 0x3d, 0x5e, 0x08, 0x90, 0xbd,
  0x73, 0x6f, 0x6e, 0xbe, 0x24, 0xb3, 0xa6, 0xbe, 0x05, 0x00, 0xaf, 0x3d,
  0xa9, 0x0f, 0x94, 0x3e, 0xa0, 0x3a, 0x67, 0xbd, 0xd6, 0x49, 0x84, 0xbd,
  0x2a, 0x28, 0xe2, 0xbd, 0x37, 0x15, 0x0f, 0x3e, 0x7a, 0x62, 0x9a, 0xbe,
  0x9e, 0x37, 0xb5, 0x3e, 0x8e, 0x1c, 0xdb, 0x3e, 0x34, 0x3f, 0xaf, 0xbc,
  0x1e, 0x41, 0x83, 0xbe, 0xfa, 0xad, 0x4c, 0x3e, 0x94, 0x2f, 0xf9, 0x3d,
  0xaf, 0xb0, 0xc0, 0xbe, 0xdc, 0xb9, 0xde, 0xbd, 0x52, 0x83, 0x43, 0xbe,
  0x1b, 0xf0, 0x1e, 0x3e, 0xba, 0x0d, 0xc9, 0x3d, 0x22, 0x1a, 0x59, 0x3d,
  0x0f, 0xae, 0x3b, 0x3d, 0x6e, 0xbc, 0xcf, 0xbd, 0x9c, 0x63, 0x92, 0xbd,
  0xa7, 0xf6, 0xc0, 0x3d, 0x6d, 0x55, 0xc2, 0x3e, 0x92, 0xd3, 0x90, 0x3e,
  0x9f, 0xfe, 0xd2, 0x3d, 0xfd, 0x4a, 0xf6, 0xbd, 0x56, 0x6c, 0x0a, 0x3e,
  0x54, 0xca, 0x84, 0x3d, 0x96, 0xb1, 0xa7, 0xbe, 0xf8, 0xc8, 0x32, 0xbe,
  0x00, 0x67, 0x48, 0xbe, 0xac, 0x12, 0x4a, 0xbd, 0x56, 0xa7, 0x44, 0x3e,
  0xdc, 0x2a, 0x70, 0x3e, 0x37, 0x0e, 0xce, 0xbe, 0xa4, 0x40, 0x78, 0xbd,
  0x82, 0x08, 0x3b, 0x3e, 0xe8, 0xb9, 0xea, 0xbd, 0x67, 0x29, 0x00, 0xbe,
  0x87, 0x58, 0x8e, 0x3e, 0x3d, 0xfe, 0x68, 0xbd, 0x3a, 0xa3, 0x4c, 0xbe,
  0x7d, 0xd1, 0xd3, 0xbd, 0x7d, 0xb1, 0x0e, 0x3e, 0x66, 0x67, 0xf0, 0xbd,
  0x5d, 0xe0, 0x9c, 0xbe, 0xa9, 0x76, 0xf9, 0xbd, 0x95, 0xda, 0xac, 0x3d,
  0x55, 0xb2, 0xb9, 0xbd, 0xdb, 0x73, 0xae, 0x3a, 0x96, 0x7f, 0x3b, 0xbe,
  0x62, 0x0f, 0x80, 0x3d, 0x56, 0x0e, 0x89, 0x3e, 0x47, 0x17, 0x8c, 0xbc,
  0x7b, 0x06, 0xd6, 0xbd, 0xdd, 0x07, 0xa9, 0x3e, 0x21, 0xa0, 0x73, 0xbd,
  0x11, 0x92, 0x7d, 0xbd, 0xde, 0x5f, 0x96, 0xbe, 0x63, 0x55, 0xe0, 0x3d,
  0xb6, 0x9d, 0x5f, 0xbd, 0x1f, 0x52, 0xc9, 0xbe, 0x15, 0xf6, 0xbe, 0xbd,
  0x0f, 0x3b, 0x17, 0x3e, 0x7c, 0x19, 0x73, 0xbc, 0xb3, 0x04, 0x01, 0x3e,
  0xb3, 0xab, 0x7d, 0xbe, 0xca, 0x2a, 0xa1, 0xbd, 0x34, 0x46, 0x8d, 0xbd,
  0x1e, 0xd7, 0xb5, 0xbe, 0x94, 0xa3, 0x09, 0x3c, 0x1b, 0x0d, 0x0e, 0xbe,
  0xef, 0xa8, 0xf8, 0x3d, 0xf2, 0x08, 0xc4, 0xbe, 0x6e, 0x27, 0x53, 0xbd,
  0x39, 0x64, 0xca, 0x3d, 0xee, 0x38, 0x89, 0x3e, 0x51, 0xc1, 0xa7, 0xbe,
  0x70, 0x6d, 0xb0, 0xbe, 0xcc, 0x37, 0x67, 0xbe, 0x26, 0xff, 0xcd, 0xbd,
  0x00, 0x0b, 0x1d, 0xbc, 0x32, 0x72, 0xc6, 0x3c, 0xe7, 0xbd, 0xb0, 0x3c,
  0xfa, 0x5c, 0x30, 0x3e, 0x67, 0xa2, 0x3f, 0xbd, 0xed, 0x2a, 0xc3, 0xbd,
  0x17, 0x99, 0x7a, 0x3e, 0x94, 0xed, 0x96, 0x3d, 0x47, 0x01, 0x2a, 0xbb,
  0x2e, 0x60, 0x18, 0x3e, 0x61, 0xae, 0x5f, 0xbd, 0x59, 0x98, 0x2d, 0x3e,
  0x79, 0x2c, 0x32, 0x3e, 0x57, 0x1a, 0x14, 0xbe, 0xa5, 0xf7, 0x08, 0x3d,
  0x39, 0x45, 0x22, 0xbe, 0x75, 0xdb, 0xaf, 0x3b, 0x95, 0xb5, 0x47, 0xbe,
  0x60, 0x40, 0xbe, 0x3d, 0x1f, 0xc6, 0x2e, 0x3c, 0xe6, 0xf5, 0x37, 0xbe,
  0x18, 0x24, 0xdd, 0xbe, 0xb7, 0x80, 0x2b, 0xbf, 0xed, 0x06, 0x5d, 0xbe,
  0x98, 0x78, 0xd7, 0xbd, 0xcf, 0x70, 0x1b, 0xbe, 0xa6, 0x2c, 0xba, 0xbd,
  0xef, 0xe2, 0x02, 0xbc, 0xee, 0x21, 0xae, 0xbb, 0xb1, 0x4d, 0xd5, 0xbe,
  0x1b, 0x64, 0x23, 0xbe, 0x57, 0xc3, 0xe9, 0xbe, 0x9e, 0xb8, 0x12, 0x3d,
  0x85, 0x51, 0xa8, 0x3d, 0x93, 0x53, 0x27, 0x3c, 0xe7, 0x29, 0xc3, 0xbd,
  0xfa, 0x38, 0x02, 0xbe, 0xd2, 0x1d, 0x58, 0xbe, 0x14, 0x12, 0xa8, 0xbe,
  0x7a, 0x69, 0xcc, 0xbe, 0xa8, 0x29, 0xbf, 0xbd, 0x40, 0xe5, 0xb6, 0xbe,
  0xbf, 0x91, 0x0c, 0x3e, 0xed, 0x76, 0xb9, 0x3d, 0x4d, 0x02, 0x6c, 0x3e,
  0x3a, 0xaf, 0xcc, 0xbd, 0x75, 0x5b, 0x68, 0x3d, 0xad, 0xc9, 0xca, 0xbd,
  0x37, 0x6d, 0x3e, 0x3b, 0xcd, 0xc2, 0x98, 0xbd, 0xcd, 0xb5, 0x23, 0x3e,
  0x54, 0xaf, 0xc0, 0xbd, 0x17, 0x4a, 0xcf, 0x3b, 0xcd, 0x34, 0x3b, 0xbe,
  0x84, 0xa5, 0xf5, 0xbe, 0xcb, 0x69, 0xad, 0xbd, 0xb2, 0x2f, 0xe5, 0x3d,
  0x82, 0x72, 0x01, 0x3e, 0x00, 0xfb, 0x78, 0x3d, 0x06, 0xfe, 0x74, 0xbe,
  0xcd, 0xe5, 0x14, 0xbe, 0x17, 0x22, 0xdb, 0xbd, 0x98, 0xce, 0xce, 0xbd,
  0x63, 0xba, 0xc1, 0xbe, 0x6c, 0xd2, 0xc6, 0xbd, 0x46, 0xaa, 0x2d, 0xbc,
  0x11, 0xd2, 0x54, 0xbc, 0xa4, 0xf6, 0x07, 0xbd, 0x31, 0x1a, 0x0c, 0xbd,
  0x1d, 0x50, 0x74, 0x3d, 0x23, 0xec, 0xe4, 0xbe, 0x26, 0x36, 0xa5, 0xbe,
  0x23, 0xf6, 0x9e, 0x3d, 0x0a, 0xad, 0xd7, 0x3c, 0xc1, 0x26, 0x2a, 0x3d,
  0xd2, 0x42, 0x26, 0xbc, 0xc5, 0x34, 0xc4, 0x3d, 0x52, 0x4f, 0xb6, 0xbc,
  0xe2, 0xc1, 0xa9, 0xbe, 0x68, 0xc6, 0xa9, 0xbe, 0xe6, 0x47, 0x61, 0xbe,
  0xda, 0xa0, 0xaa, 0x3d, 0x63, 0x93, 0x43, 0xbe, 0xd3, 0x3a, 0xd1, 0xbd,
  0x4c, 0x53, 0xa0, 0xbd, 0x47, 0xed, 0xce, 0xbb, 0xb0, 0x23, 0x33, 0xbe,
  0x91, 0xef, 0xf0, 0x3c, 0x89, 0x9c, 0x1d, 0x3d, 0x12, 0xc4, 0x32, 0x3e,
  0x16, 0xcc, 0x64, 0xbe, 0x88, 0x2e, 0xe0, 0xbe, 0x0a, 0xf9, 0xed, 0xbc,
  0xc2, 0xea, 0x69, 0x3e, 0xf1, 0x12, 0x12, 0xbf, 0x90, 0xec, 0xcd, 0xbd,
  0x0d, 0xb1, 0xf2, 0x3b, 0x18, 0x59, 0x09, 0xbe, 0xa6, 0x3e, 0x22, 0xbe,
  0xab, 0xdc, 0x5c, 0xbd, 0x86, 0x97, 0x09, 0x3e, 0xab, 0x8b, 0x16, 0x3f,
  0x57, 0x44, 0x22, 0xbc, 0x84, 0x3a, 0xd2, 0xbd, 0x89, 0x72, 0xf7, 0x3d,
  0x29, 0x80, 0xd8, 0x3e, 0x33, 0xfd, 0x56, 0xbe, 0xd5, 0x6b, 0xdd, 0xbe,
  0x97, 0xb9, 0xe7, 0x3d, 0xd4, 0x88, 0xaf, 0x3e, 0x0f, 0xdc, 0x9b, 0xbd,
  0x11, 0xa3, 0x8c, 0x3e, 0x5e, 0x0f, 0xbf, 0x3d, 0xf7, 0xfe, 0x3f, 0x3e,
  0x18, 0xfc, 0xe1, 0xba, 0x5e, 0x7e, 0x03, 0xbe, 0x97, 0x72, 0xb5, 0x3e,
  0x40, 0x0d, 0x52, 0xbf, 0x65, 0x89, 0x5a, 0xbc, 0xa9, 0x46, 0x65, 0xbd,
  0x7e, 0x61, 0x20, 0xbc, 0x27, 0xc0, 0x5c, 0xbf, 0x02, 0x7b, 0x39, 0x3e,
  0x39, 0xf2, 0x90, 0x3e, 0x58, 0x8b, 0xa9, 0xbe, 0x52, 0x1d, 0x5c, 0xbd,
  0x90, 0x66, 0x42, 0x3d, 0x3d, 0x7d, 0x97, 0x3e, 0xcc, 0x36, 0x1d, 0xbd,
  0x62, 0x27, 0x8a, 0x3c, 0xd1, 0x46, 0x28, 0x3e, 0x35, 0xd4, 0x9a, 0x3d,
  0x4a, 0x42, 0xe7, 0xbd, 0xd7, 0x80, 0x23, 0x3d, 0x65, 0x8b, 0x15, 0x3f,
  0x52, 0x87, 0x9e, 0xbd, 0x68, 0x93, 0x48, 0x3d, 0xbc, 0x5f, 0x42, 0xbd,
  0xd9, 0xfe, 0x27, 0xbd, 0x9e, 0xa0, 0xbb, 0x3d, 0xef, 0xb6, 0x3d, 0xbb,
  0x34, 0x32, 0xb8, 0xbc, 0x34, 0x58, 0xc2, 0xbd, 0xe8, 0xec, 0x1b, 0x3f,
  0x48, 0xba, 0x1f, 0x3d, 0x39, 0x9f, 0x06, 0xbe, 0x5a, 0x1f, 0xa6, 0xbc,
  0x91, 0x62, 0x7e, 0xbd, 0x75, 0xca, 0x16, 0xbe, 0x65, 0xdf, 0x5e, 0x3e,
  0xe9, 0x77, 0x06, 0x3f, 0xd8, 0x8a, 0x10, 0xbd, 0x17, 0x6d, 0xd2, 0xbc,
  0xd4, 0xf8, 0x6c, 0xbd, 0xd8, 0xad, 0x52, 0xbe, 0xfd, 0xbf, 0x51, 0xbe,
  0xa7, 0x6a, 0x50, 0x3e, 0x19, 0xd4, 0x7c, 0x3d, 0xc8, 0x3b, 0xff, 0xbc,
  0x67, 0xf0, 0x7f, 0x3e, 0xaf, 0x3b, 0xf1, 0x3d, 0x00, 0x12, 0x3c, 0xbe,
  0x81, 0x8e, 0x97, 0x3d, 0xe1, 0x1e, 0x1a, 0xbe, 0x9c, 0x8b, 0xa9, 0x3c,
  0xc7, 0x95, 0x80, 0x3e, 0x61, 0xd5, 0x09, 0x3f, 0xdf, 0xf7, 0x09, 0x3e,
  0xfb, 0x97, 0xfa, 0x3b, 0x4e, 0xb1, 0x06, 0x3e, 0x9a, 0x07, 0xfc, 0xbc,
  0xd6, 0x0a, 0xf0, 0xbe, 0x29, 0xc4, 0x0e, 0x3e, 0x8c, 0x4e, 0xa0, 0x3d,
  0x47, 0x2d, 0x7d, 0xbe, 0xb5, 0x69, 0x1e, 0x3d, 0x3e, 0x92, 0x72, 0x3e,
  0x72, 0x69, 0x59, 0xbe, 0xed, 0x85, 0x83, 0xbe, 0x38, 0xdb, 0x8d, 0xbe,
  0xe1, 0xa8, 0x51, 0x3d, 0x2c, 0x22, 0xcd, 0x3d, 0x48, 0x19, 0xb6, 0x3e,
  0x04, 0xa6, 0x9e, 0x3d, 0x06, 0x98, 0x90, 0x3d, 0x2c, 0x49, 0x47, 0xbe,
  0x27, 0x52, 0x65, 0xbc, 0xb2, 0x38, 0x6e, 0xbe, 0xe3, 0x37, 0x62, 0xbe,
  0xbc, 0xa0, 0x75, 0xbd, 0xf6, 0x88, 0xa1, 0x3e, 0x2c, 0xa5, 0x9a, 0x3e,
  0xd1, 0x8d, 0x1c, 0x3e, 0xa6, 0x2f, 0xef, 0x3c, 0x01, 0x75, 0x20, 0x3d,
  0x2f, 0xb4, 0x92, 0x3e, 0xc0, 0xa7, 0x7e, 0xbd, 0x8b, 0x95, 0x36, 0xbd,
  0x47, 0xbb, 0xc3, 0xbe, 0xb1, 0xa4, 0x9c, 0x3d, 0xba, 0x4a, 0x0a, 0xbe,
  0x0f, 0x9d, 0x57, 0xbe, 0x77, 0xad, 0x13, 0xbd, 0x46, 0x91, 0x47, 0xbe,
  0x21, 0x3d, 0x2e, 0x3e, 0x8f, 0x46, 0xfb, 0xbd, 0x5a, 0xd3, 0x90, 0xbd,
  0xc5, 0x70, 0x5e, 0x3d, 0x38, 0xa4, 0x93, 0x3d, 0xb3, 0x0e, 0x04, 0x3f,
  0x01, 0xef, 0x00, 0xbe, 0x0a, 0x30, 0x1f, 0xbe, 0x8c, 0x3b, 0x94, 0xbc,
  0x37, 0x86, 0xb4, 0xbe, 0x4a, 0x50, 0xd2, 0xbc, 0x57, 0x50, 0x13, 0x3d,
  0xad, 0xd7, 0x29, 0xbe, 0x31, 0x57, 0xca, 0xbe, 0x67, 0x79, 0x33, 0xbb,
  0xa4, 0x1b, 0x11, 0x3e, 0x92, 0xd3, 0x69, 0xbf, 0xf0, 0x7b, 0xa5, 0xbd,
  0xc1, 0x40, 0x6a, 0xbe, 0xd5, 0xc0, 0x25, 0xbe, 0x93, 0xd2, 0x0d, 0x3e,
  0xa7, 0xcf, 0x89, 0xbe, 0x24, 0xc9, 0x9b, 0xbd, 0x58, 0xe9, 0x52, 0x3e,
  0x0e, 0x46, 0x71, 0xbe, 0x01, 0x74, 0x22, 0x3d, 0xe1, 0x90, 0x66, 0x3e,
  0x07, 0x22, 0xab, 0xbc, 0xa3, 0x9f, 0x1e, 0xbe, 0xba, 0xfd, 0x00, 0xbd,
  0x4f, 0x60, 0x68, 0xbd, 0xbd, 0x22, 0x33, 0xbe, 0x2f, 0xfd, 0xd3, 0x3e,
  0x93, 0xcd, 0x85, 0xbe, 0x5d, 0x8e, 0x30, 0xbd, 0x24, 0xdb, 0x5b, 0xbd,
  0x6c, 0x01, 0x71, 0xbe, 0x0e, 0x55, 0xaf, 0xbe, 0xcf, 0x14, 0x82, 0xbd,
  0x66, 0x26, 0x34, 0xbd, 0x6f, 0xae, 0x47, 0xbe, 0xb1, 0x22, 0xb0, 0x3c,
  0x2c, 0x5c, 0xcb, 0xbd, 0x5a, 0x8a, 0xa9, 0xbe, 0xc5, 0x6b, 0xd1, 0x3d,
  0xec, 0x27, 0x93, 0x3d, 0x7d, 0xa7, 0x12, 0xbe, 0xfe, 0xd3, 0x77, 0x3d,
  0x73, 0x87, 0xd5, 0x3d, 0x5b, 0x18, 0x2b, 0xbe, 0x85, 0x84, 0x83, 0xbc,
  0xac, 0x4e, 0xa5, 0xbe, 0x32, 0xae, 0x32, 0x3c, 0xee, 0xe9, 0x63, 0xbe,
  0xdf, 0x68, 0x39, 0xbe, 0x32, 0x27, 0x0d, 0x3d, 0x03, 0x39, 0x94, 0xbe,
  0xb0, 0x59, 0x9c, 0xbd, 0x4b, 0x01, 0x58, 0x3c, 0x30, 0x69, 0x86, 0xbe,
  0x8a, 0x6e, 0xd4, 0x3d, 0xb5, 0x6b, 0x05, 0x3e, 0xb1, 0x74, 0x1e, 0x3e,
  0xa1, 0xe5, 0xb1, 0x3e, 0xe9, 0x6c, 0x85, 0x3e, 0x16, 0x2a, 0x0a, 0xbe,
  0x33, 0xa8, 0xca, 0xbc, 0xf4, 0x71, 0xb0, 0xbd, 0x21, 0x86, 0x07, 0xbe,
  0x13, 0x58, 0xb6, 0xbe, 0x84, 0x20, 0x12, 0x3e, 0x57, 0x4f, 0x60, 0x3d,
  0xf3, 0x08, 0xc4, 0xbe, 0xc9, 0xb9, 0x88, 0xbe, 0xc8, 0x72, 0x8b, 0xbd,
  0xce, 0x8d, 0x3b, 0xbe, 0xb6, 0xde, 0x51, 0xbe, 0x66, 0x0d, 0x05, 0xbc,
  0xc2, 0x2b, 0x82, 0xbd, 0xe4, 0xaa, 0xa9, 0x3d, 0x5c, 0x0f, 0x07, 0x3e,
  0x8b, 0x5b, 0x15, 0xbe, 0xda, 0x2b, 0xd9, 0xbc, 0x90, 0x7d, 0x35, 0xbe,
  0x5d, 0xca, 0x00, 0xbd, 0xa4, 0xa7, 0x69, 0xbe, 0x16, 0x3f, 0x0c, 0x3d,
  0xc0, 0x63, 0x0d, 0x3d, 0x76, 0xc5, 0x47, 0xbd, 0x08, 0x7d, 0x88, 0x3e,
  0x21, 0x35, 0x0c, 0x3e, 0x48, 0xe8, 0xc3, 0xbe, 0xe5, 0x93, 0x8f, 0xbd,
  0x14, 0x3e, 0x16, 0x3e, 0xe6, 0x97, 0x09, 0xbe, 0xcb, 0x59, 0x1e, 0x3d,
  0x3b, 0x0f, 0xe6, 0x3d, 0xf7, 0x25, 0x7e, 0x3c, 0x4d, 0xf3, 0x8f, 0xbe,
  0x1e, 0xbd, 0x9d, 0xbe, 0xdf, 0xd1, 0xda, 0xbd, 0x37, 0xe9, 0x11, 0xbe,
  0xaa, 0x51, 0x18, 0xbe, 0x75, 0x63, 0x9c, 0xbd, 0x09, 0xf6, 0x7b, 0x3e,
  0x06, 0x50, 0x82, 0x3e, 0x71, 0x4b, 0x52, 0xbd, 0xe6, 0x85, 0x05, 0x3e,
  0x42, 0xc1, 0x02, 0xbf, 0x5b, 0x50, 0x94, 0x3e, 0xe8, 0x0f, 0x8c, 0xbd,
  0x60, 0x22, 0x86, 0x3d, 0xfb, 0xf7, 0x1c, 0x3e, 0x38, 0x1c, 0x70, 0x3e,
  0x75, 0x76, 0xad, 0x3c, 0x65, 0x90, 0x36, 0xbd, 0xfa, 0x9b, 0x6f, 0xbe,
  0x36, 0xd2, 0x28, 0x3e, 0xa7, 0x8b, 0xac, 0xbe, 0x18, 0x8b, 0x50, 0xbe,
  0xdc, 0x50, 0xc0, 0x3d, 0xf0, 0x1a, 0x65, 0x3e, 0x8b, 0x92, 0x0d, 0x3e,
  0xd1, 0x1d, 0x8a, 0x3e, 0x6d, 0x4f, 0xa9, 0x3d, 0x1f, 0x08, 0x07, 0xbe,
  0xc3, 0x24, 0x30, 0x3e, 0x40, 0x00, 0xec, 0x3d, 0xcf, 0x35, 0x94, 0xbc,
  0x8c, 0x55, 0x91, 0x3e, 0xae, 0xd9, 0x21, 0x3e, 0xd9, 0xef, 0x8e, 0xbe,
  0xc1, 0x4d, 0xf8, 0xbe, 0x1c, 0xf2, 0x35, 0xbe, 0xb5, 0x43, 0x3f, 0xbe,
  0xca, 0xbf, 0x93, 0x3e, 0x82, 0x96, 0x1f, 0xbe, 0x15, 0x41, 0x04, 0x3f,
  0xfb, 0xa9, 0x04, 0xbf, 0xe2, 0x2f, 0x90, 0xbe, 0xde, 0x75, 0x6f, 0xbe,
  0xaf, 0xcc, 0xb4, 0x3e, 0x7f, 0x03, 0x6d, 0xbe, 0x81, 0xed, 0xb5, 0xbe,
  0xfb, 0x5c, 0x03, 0x3f, 0x37, 0xe0, 0xb0, 0xbc, 0x34, 0x14, 0xc5, 0xbe,
  0x76, 0x46, 0x8b, 0xbe, 0x2f, 0xd9, 0x70, 0xbe, 0xce, 0x20, 0xc3, 0x3d,
  0xd8, 0x5d, 0x9b, 0xbd, 0x9b, 0x25, 0x97, 0xbd, 0x08, 0x78, 0x15, 0x3e,
  0xa6, 0x97, 0xa0, 0x3e, 0xb2, 0xcd, 0x01, 0xbd, 0x91, 0xde, 0x4d, 0x3e,
  0xda, 0x4f, 0xb1, 0xbd, 0xfa, 0xdc, 0x99, 0x3e, 0xff, 0xe2, 0x4c, 0x3c,
  0xc0, 0xa5, 0xc1, 0x3b, 0x5b, 0x89, 0xa6, 0x3e, 0x77, 0x3a, 0x9f, 0x3e,
  0x35, 0x41, 0xad, 0x3d, 0x89, 0xa3, 0x3d, 0xbe, 0x50, 0x1e, 0x9b, 0x3d,
  0xf4, 0x2d, 0x01, 0x3e, 0x4c, 0x1d, 0x88, 0x3d, 0x3a, 0xac, 0xcf, 0xbd,
  0x17, 0xaf, 0x62, 0x3c, 0x3c, 0x49, 0x39, 0x3e, 0x94, 0x1d, 0x87, 0xbe,
  0xdc, 0xc6, 0x14, 0x3c, 0xe5, 0xc8, 0x0b, 0x3e, 0xd4, 0x6d, 0xb0, 0x3c,
  0x1b, 0xd8, 0x09, 0x3d, 0x7b, 0x46, 0x9b, 0x3e, 0x8c, 0xdb, 0x9e, 0x3d,
  0xce, 0xc1, 0x1f, 0x3d, 0xe1, 0x61, 0xe1, 0x3c, 0x1d, 0x61, 0x89, 0x3e,
  0x34, 0x02, 0x4d, 0xbe, 0x88, 0x0c, 0x22, 0x3c, 0x34, 0x65, 0x92, 0x3e,
  0x97, 0x69, 0x4c, 0xbe, 0x07, 0xe0, 0x66, 0x3d, 0xc4, 0x41, 0x69, 0xbe,
  0x14, 0x4f, 0x98, 0xbc, 0x7f, 0x34, 0x0c, 0x3d, 0x00, 0x48, 0x55, 0xbd,
  0x21, 0xf8, 0xe4, 0x3d, 0x1a, 0x7e, 0xd3, 0xbc, 0xb0, 0xfb, 0x0a, 0xbe,
  0xdd, 0x2f, 0x39, 0x3e, 0x99, 0x92, 0x53, 0xbe, 0xff, 0x70, 0xf9, 0x3a,
  0xfc, 0xb4, 0x4b, 0x3e, 0xda, 0x42, 0xb7, 0xbd, 0x77, 0xc1, 0xb0, 0x3d,
  0x1e, 0xc9, 0xfb, 0x3c, 0x8a, 0x0b, 0x90, 0x3c, 0x21, 0x7e, 0x5b, 0xbd,
  0xac, 0x11, 0xab, 0x3c, 0xbc, 0x51, 0x4e, 0x3d, 0x06, 0x4b, 0x03, 0xbe,
  0xa5, 0xd7, 0x55, 0x3d, 0x8e, 0x5a, 0x36, 0xbe, 0x69, 0x8e, 0xec, 0x3d,
  0x0e, 0x47, 0xde, 0xbd, 0xa1, 0xcd, 0x90, 0x3d, 0x29, 0x69, 0xa2, 0xbd,
  0xba, 0x2e, 0x14, 0x3e, 0xa0, 0xdb, 0x06, 0xbe, 0x7d, 0xa8, 0x72, 0xbc,
  0xd4, 0x68, 0x97, 0xbb, 0x53, 0x10, 0x66, 0x3e, 0x50, 0x18, 0xa7, 0xbe,
  0x04, 0xd5, 0xd2, 0x3d, 0x23, 0xc5, 0x87, 0xbe, 0xdb, 0x4d, 0x18, 0xbe,
  0x12, 0x83, 0x0b, 0x3d, 0x15, 0xb9, 0xaf, 0x3d, 0xb2, 0xa7, 0x1f, 0xbe,
  0x14, 0xf2, 0x1c, 0x3d, 0xa1, 0xcd, 0xb9, 0xbb, 0x1d, 0x49, 0xec, 0x3d,
  0x96, 0xa8, 0x4e, 0xbe, 0xab, 0x1a, 0x76, 0x3d, 0x5d, 0x3a, 0xda, 0x3c,
  0x14, 0xae, 0xd6, 0xbd, 0x0b, 0x67, 0x37, 0x3e, 0x74, 0x84, 0x9f, 0xbd,
  0x05, 0x95, 0x76, 0xbe, 0x2c, 0x4c, 0x63, 0x3d, 0x64, 0x2f, 0xd5, 0xbe,
  0xcc, 0xd6, 0x63, 0xbd, 0x73, 0x50, 0x54, 0x3b, 0x5e, 0x7d, 0x19, 0x3c,
  0x5d, 0x57, 0xa7, 0xbe, 0xf4, 0xe7, 0xf5, 0xbc, 0x6a, 0xd5, 0x10, 0xbe,
  0xc5, 0xb9, 0x07, 0xbe, 0x20, 0x9e, 0x92, 0xbe, 0x22, 0x6c, 0x82, 0xbe,
  0x1f, 0xea, 0x35, 0xbd, 0xb7, 0xf2, 0xef, 0x3c, 0xaf, 0xdb, 0xe6, 0xbe,
  0x9c, 0x2c, 0x1b, 0xbf, 0xfb, 0x79, 0x85, 0xbd, 0xb9, 0x03, 0x51, 0xbd,
  0x07, 0xe6, 0xf9, 0xbd, 0x31, 0x73, 0x25, 0xbf, 0x57, 0x98, 0x08, 0x3e,
  0xb4, 0xb0, 0x8b, 0xbe, 0x00, 0xdb, 0x76, 0xbe, 0xc9, 0xf2, 0x78, 0x3e,
  0xd8, 0x3f, 0x8c, 0xbe, 0xfb, 0x14, 0xd7, 0xbc, 0x9e, 0xd2, 0x73, 0x3d,
  0xa5, 0x8f, 0x35, 0xbc, 0x13, 0xb6, 0x1d, 0xbe, 0x37, 0x80, 0x7d, 0xbc,
  0x62, 0xdb, 0xe0, 0xbc, 0xf2, 0xc0, 0x1d, 0x3e, 0xcb, 0x0d, 0x08, 0xbd,
  0x3b, 0x20, 0x5c, 0xbe, 0x68, 0x97, 0xd9, 0x3d, 0x23, 0x7a, 0x4a, 0x3d,
  0x59, 0xe5, 0xbc, 0x3d, 0x30, 0x9d, 0x0d, 0xbe, 0x3b, 0xba, 0x70, 0xbc,
  0xb3, 0xdc, 0x98, 0x3d, 0xc8, 0x9b, 0x22, 0x37, 0xcb, 0xed, 0x34, 0xbe,
  0x37, 0x51, 0x5f, 0xbe, 0xac, 0xf7, 0xab, 0xbb, 0x6c, 0x1f, 0xa5, 0x3d,
  0x0e, 0xa1, 0x25, 0x3e, 0x5f, 0x54, 0x80, 0x3d, 0xd6, 0xc7, 0x1a, 0xbe,
  0xd4, 0x13, 0x86, 0x3e, 0x45, 0x2b, 0x23, 0x3d, 0x33, 0xa5, 0x3e, 0x3e,
  0x11, 0x1b, 0x84, 0x3d, 0x47, 0x4d, 0xf6, 0x3d, 0x3f, 0xcf, 0x45, 0x3d,
  0x0f, 0x1c, 0x67, 0xbe, 0x9a, 0x76, 0x7d, 0x3d, 0xd2, 0x7a, 0xdf, 0xbd,
  0x1b, 0x9c, 0x81, 0x3c, 0xd6, 0xe9, 0x12, 0x3e, 0x93, 0x92, 0x8f, 0xbd,
  0xae, 0xd6, 0x30, 0xbe, 0x32, 0x8e, 0x91, 0x3d, 0x08, 0x2b, 0xb7, 0x3c,
  0x67, 0x4e, 0x6d, 0xbe, 0xaf, 0x5a, 0x01, 0x3e, 0xb3, 0x4c, 0x19, 0xbe,
  0x09, 0xde, 0x4d, 0xbc, 0xbe, 0xf1, 0x06, 0x3e, 0xf5, 0xb3, 0xa3, 0xbd,
  0x87, 0xa7, 0x52, 0xbe, 0xe8, 0x0f, 0x74, 0xbc, 0x93, 0xe7, 0x43, 0x3e,
  0x8f, 0x68, 0x62, 0xbe, 0x77, 0x1b, 0x8a, 0xbd, 0x78, 0x83, 0x88, 0xbd,
  0x27, 0x60, 0x85, 0x3e, 0x15, 0xc7, 0x1b, 0xbe, 0x48, 0x56, 0x26, 0x3e,
  0x2a, 0xb8, 0xa3, 0xbd, 0x80, 0xa5, 0x30, 0x3e, 0x0e, 0x71, 0xaf, 0x3c,
  0x5c, 0x58, 0x70, 0xbe, 0xee, 0x3d, 0xdf, 0x3c, 0x11, 0xac, 0x7e, 0x3e,
  0xbb, 0x3e, 0xa4, 0x3c, 0x49, 0xdf, 0x0e, 0xbe, 0xd9, 0x2a, 0x50, 0xbe,
  0xa4, 0x1c, 0xc9, 0x3d, 0x35, 0xe1, 0xb4, 0xbd, 0xe2, 0x1b, 0x4e, 0xbe,
  0x97, 0xe4, 0xa1, 0xbe, 0x0c, 0x95, 0xd8, 0x3d, 0x25, 0x83, 0x3c, 0xbd,
  0xee, 0x4b, 0x99, 0x3d, 0xe3, 0x6d, 0xc7, 0x3d, 0x95, 0x45, 0x6e, 0x3e,
  0xa8, 0x9c, 0x4a, 0x3e, 0x88, 0x66, 0x63, 0xbe, 0x2f, 0xc3, 0x37, 0xbc,
  0x55, 0x20, 0x53, 0xbd, 0x7f, 0x5f, 0x26, 0xbe, 0xec, 0x46, 0x7e, 0xbe,
  0x95, 0xcd, 0xc9, 0x3c, 0x29, 0x43, 0x8d, 0xbb, 0x73, 0xe0, 0x4c, 0xbb,
  0x87, 0xed, 0xa1, 0xbe, 0x65, 0xe3, 0xbf, 0xbd, 0x82, 0xb5, 0x54, 0x3e,
  0x0b, 0xdd, 0xb2, 0x3d, 0x49, 0xb8, 0x29, 0x3e, 0xfc, 0xb4, 0x12, 0xbd,
  0x16, 0xcd, 0xca, 0x3d, 0x5c, 0x14, 0x8d, 0xbc, 0x1b, 0xd8, 0xf0, 0xbc,
  0x9d, 0xc3, 0x03, 0xbc, 0xad, 0xee, 0x07, 0xbe, 0x09, 0x10, 0xd4, 0xbd,
  0xe3, 0x2f, 0xaf, 0xbe, 0x69, 0x4c, 0x0e, 0x3e, 0xa6, 0x51, 0x95, 0xbe,
  0x38, 0x50, 0x3b, 0x3e, 0x50, 0xd9, 0xdf, 0x3d, 0xfa, 0xd9, 0xad, 0xba,
  0x60, 0x64, 0xfa, 0x3d, 0x79, 0x3b, 0x07, 0x3e, 0xa3, 0x4f, 0xe2, 0x3d,
  0xf4, 0xc2, 0x94, 0x3e, 0x2a, 0x7f, 0x6c, 0x3e, 0xfb, 0xd0, 0x31, 0xbe,
  0xfd, 0x9b, 0xac, 0xbd, 0x08, 0x7e, 0x48, 0xbf, 0x16, 0x94, 0x0b, 0xbf,
  0x98, 0xa7, 0x9b, 0x3d, 0x14, 0x1f, 0x31, 0x3e, 0x4a, 0xc0, 0x57, 0xbf,
  0x33, 0x26, 0x8a, 0x3e, 0xb1, 0xed, 0x20, 0x3e, 0x10, 0x02, 0x08, 0xbf,
  0xa5, 0x98, 0x77, 0x3b, 0x0c, 0x67, 0x91, 0x3e, 0x0b, 0x38, 0x47, 0x3e,
  0x33, 0xd5, 0x28, 0xbd, 0x88, 0xba, 0x41, 0xbe, 0x0b, 0x66, 0xbd, 0x3e,
  0x88, 0xda, 0x5a, 0x3e, 0x6b, 0xca, 0x0e, 0xbe, 0xf8, 0x42, 0xc4, 0xbe,
  0xde, 0xdc, 0xbe, 0x3e, 0x32, 0x22, 0xef, 0xbd, 0xc2, 0xfb, 0xfe, 0x3d,
  0xb9, 0x90, 0xe4, 0xbc, 0x76, 0x89, 0xd3, 0xbd, 0x94, 0x7f, 0x82, 0x3d,
  0xba, 0x6e, 0x0c, 0x3e, 0xe0, 0x73, 0x3d, 0xbe, 0x43, 0x23, 0xd4, 0xbc,
  0x5e, 0x9f, 0x33, 0x3e, 0xe3, 0x8f, 0xcd, 0xbd, 0xa1, 0x01, 0x03, 0xbe,
  0x6a, 0x11, 0x57, 0x3d, 0x64, 0x07, 0x77, 0x3d, 0xeb, 0x49, 0x87, 0xbd,
  0x74, 0x71, 0x98, 0xbb, 0xaf, 0x45, 0x89, 0x3e, 0x23, 0xfe, 0x1c, 0x3d,
  0x99, 0x77, 0xee, 0x3c, 0x7a, 0xc7, 0xf8, 0xbd, 0xb2, 0x78, 0x2c, 0xbe,
  0xaf, 0xba, 0xf7, 0xbd, 0x9a, 0x49, 0x7f, 0xbd, 0x06, 0x4f, 0xba, 0x3d,
  0x4e, 0x38, 0x9c, 0xbd, 0xfa, 0x4c, 0x3a, 0x3e, 0xf7, 0x67, 0x72, 0x3d,
  0x2b, 0xf4, 0x38, 0xbe, 0x3a, 0x3a, 0x5a, 0xbe, 0x90, 0x35, 0x5e, 0x3d,
  0x8c, 0x02, 0x9a, 0x3d, 0xf7, 0xfb, 0xf1, 0x3d, 0xc7, 0xd4, 0xcc, 0x3e,
  0x41, 0x23, 0xf9, 0x3a, 0x88, 0x68, 0xa3, 0xbd, 0x17, 0x7f, 0x7c, 0xbd,
  0x9a, 0xa6, 0xa8, 0xbc, 0x87, 0xab, 0xce, 0x3d, 0x19, 0xc2, 0x67, 0x3d,
  0x81, 0x07, 0x7a, 0x3d, 0x7c, 0x2d, 0x62, 0x3d, 0x51, 0x6e, 0x9b, 0x3d,
  0xd3, 0xfd, 0x12, 0x3e, 0x75, 0xe1, 0xcd, 0xbb, 0x38, 0xf4, 0x07, 0xbe,
  0x86, 0x11, 0x18, 0x3d, 0x5c, 0xa3, 0xfe, 0x3d, 0x90, 0x52, 0x9f, 0xbc,
  0x30, 0x66, 0x09, 0x3e, 0x73, 0xa9, 0xff, 0x3d, 0xc9, 0x53, 0xde, 0xbd,
  0xc5, 0xb9, 0xa5, 0xbe, 0xb9, 0xf9, 0x13, 0x3d, 0x68, 0xa8, 0x02, 0xbc,
  0x3e, 0x9d, 0x0e, 0xbe, 0xe4, 0x13, 0x2d, 0x3d, 0x97, 0xcf, 0xc9, 0x3d,
  0xa6, 0x83, 0x0b, 0xba, 0xb0, 0x7f, 0xf6, 0x3d, 0xd3, 0xea, 0x2d, 0xbe,
  0x6f, 0xb5, 0x24, 0xbd, 0x3f, 0xbb, 0x2c, 0x3d, 0x97, 0x4b, 0xa9, 0x3d,
  0x38, 0x03, 0xb5, 0xbe, 0x97, 0x64, 0x0c, 0xbf, 0x40, 0x09, 0x44, 0x3d,
  0x4a, 0xf4, 0x79, 0xbd, 0xa0, 0xcf, 0xcf, 0xbe, 0xee, 0x7d, 0x00, 0x3e,
  0xbd, 0xa6, 0x36, 0x3e, 0x2b, 0x64, 0x27, 0x3e, 0x3e, 0x06, 0xe7, 0xbd,
  0x4e, 0x9d, 0x16, 0x3e, 0x84, 0xe4, 0xa1, 0x3e, 0xc1, 0xac, 0x7b, 0xbd,
  0x6c, 0x68, 0xd1, 0x3e, 0x19, 0xd3, 0x0a, 0xbe, 0x78, 0x74, 0x2c, 0xbc,
  0x58, 0x07, 0x56, 0x3c, 0x36, 0x0e, 0x80, 0xbf, 0xb6, 0x91, 0x5f, 0x3c,
  0x2e, 0x20, 0xf7, 0x3d, 0xce, 0xaf, 0xa0, 0xbd, 0xdd, 0xed, 0x18, 0xbf,
  0xc2, 0xaa, 0x39, 0xbb, 0xa5, 0xa4, 0x09, 0x3e, 0x72, 0xaa, 0x2e, 0xbf,
  0x18, 0x77, 0xbc, 0x3a, 0x4f, 0x9a, 0xd8, 0xbd, 0xbc, 0xc7, 0xb9, 0xbc,
  0x2c, 0x5a, 0x9c, 0xbd, 0x32, 0x5b, 0x8d, 0xbd, 0x85, 0x30, 0xfc, 0xbd,
  0x17, 0x32, 0x69, 0xbd, 0xd6, 0xa7, 0x2c, 0xbe, 0xa1, 0x8e, 0x24, 0x3e,
  0x4e, 0xe8, 0xac, 0xbd, 0xb4, 0x91, 0x83, 0xbe, 0xd6, 0x12, 0x16, 0xbe,
  0x5c, 0xaa, 0x0a, 0xbe, 0x95, 0x92, 0x1a, 0xbe, 0x5e, 0x9d, 0xcb, 0x3d,
  0x84, 0xbc, 0x1e, 0x3b, 0x69, 0xd4, 0x08, 0xbe, 0x01, 0x9e, 0x77, 0xbe,
  0x4a, 0x44, 0x9f, 0xbd, 0xc3, 0xe1, 0x3b, 0xbe, 0x35, 0xdd, 0x94, 0xbd,
  0x8b, 0x13, 0x2e, 0xbe, 0x7c, 0xa5, 0x98, 0x3d, 0xdb, 0xed, 0x76, 0x3d,
  0x8b, 0x7c, 0x21, 0x3c, 0x0d, 0x94, 0x55, 0xbe, 0x51, 0xcf, 0x91, 0xbe,
  0xdd, 0xbe, 0x30, 0xbe, 0x36, 0x6b, 0x7a, 0x3e, 0xea, 0x04, 0xb3, 0xbd,
  0xed, 0xa3, 0x77, 0xbc, 0xb6, 0x71, 0x6f, 0x3e, 0x3b, 0xe4, 0x88, 0xbe,
  0xc6, 0xd4, 0x55, 0x3e, 0x7d, 0x1c, 0xe6, 0x39, 0x66, 0x37, 0x9b, 0xbe,
  0x6e, 0x79, 0x12, 0xbe, 0x19, 0x22, 0xf5, 0x3c, 0x01, 0x4d, 0x06, 0xbe,
  0x23, 0x5f, 0x43, 0x3e, 0xdb, 0xab, 0xea, 0xbd, 0x86, 0x52, 0x87, 0x3b,
  0x69, 0xea, 0xa6, 0xbd, 0x82, 0x02, 0x3d, 0xbe, 0x15, 0x6d, 0x16, 0xbb,
  0x8f, 0xc3, 0x2e, 0x3e, 0x96, 0xf3, 0x9e, 0xbd, 0x40, 0x23, 0x89, 0x3e,
  0x78, 0xdb, 0x7c, 0xbc, 0x10, 0x34, 0x64, 0x3d, 0xfc, 0x1d, 0x37, 0x3e,
  0x21, 0xf9, 0x81, 0xbe, 0x1b, 0x07, 0x51, 0xbe, 0x46, 0x34, 0x1c, 0x3c,
  0xdc, 0xcc, 0xde, 0x3d, 0xe4, 0x5c, 0x26, 0x3e, 0xc0, 0xea, 0xa2, 0xbd,
  0xb1, 0xb3, 0xed, 0xbc, 0xae, 0x6a, 0x0d, 0x3c, 0xc9, 0xaa, 0x1c, 0x3e,
  0xbd, 0xb6, 0xef, 0x3d, 0xc0, 0xf1, 0x61, 0xbe, 0xf3, 0x60, 0x11, 0x3e,
  0x7f, 0x1f, 0x06, 0x3b, 0xe9, 0x5c, 0x87, 0xbe, 0x74, 0x7e, 0xbc, 0x3c,
  0x02, 0x14, 0x2a, 0xbc, 0xd4, 0x00, 0x4e, 0xbe, 0x63, 0x06, 0x44, 0xbc,
  0xf8, 0x8e, 0x45, 0xbe, 0xe2, 0x5c, 0x5f, 0xbd, 0x47, 0x09, 0x96, 0xbc,
  0xb1, 0x67, 0xc3, 0x3d, 0x76, 0x1b, 0xe9, 0xbd, 0x73, 0x0f, 0x4d, 0xbe,
  0xfe, 0x9f, 0x8e, 0x3d, 0x43, 0x84, 0x1c, 0xbd, 0x7c, 0x0b, 0x3a, 0xbe,
  0x31, 0xe6, 0x82, 0xbb, 0x33, 0xa2, 0x98, 0x3e, 0xdf, 0xa0, 0x58, 0xbe,
  0xc0, 0x79, 0x85, 0x3d, 0x3f, 0x38, 0xe6, 0x3d, 0x02, 0x8e, 0x7e, 0xbe,
  0x90, 0xf5, 0x1b, 0x3e, 0x4a, 0x86, 0x57, 0xbe, 0xdc, 0x34, 0x8b, 0x3c,
  0x0d, 0x4f, 0xad, 0xbd, 0x3b, 0x23, 0x40, 0x3e, 0xc7, 0x1b, 0xae, 0xbd,
  0x56, 0x75, 0x34, 0x3d, 0xd2, 0xa6, 0x78, 0xbd, 0x92, 0x2e, 0x3d, 0x3e,
  0x04, 0x9d, 0x96, 0xbe, 0xa9, 0xad, 0x6b, 0xbd, 0xef, 0xee, 0x9d, 0x3e,
  0x40, 0x81, 0xd0, 0xbd, 0x91, 0x0d, 0x2d, 0x3d, 0x8c, 0xb9, 0xca, 0xbd,
  0x9f, 0x58, 0x97, 0x3c, 0x7c, 0xd7, 0xa0, 0xbd, 0x97, 0x83, 0x8a, 0xbd,
  0x31, 0xb0, 0x33, 0xbd, 0xb7, 0x0e, 0xc2, 0xbc, 0x78, 0xaa, 0xb4, 0x3c,
  0xcd, 0xf9, 0xe1, 0x3a, 0x6d, 0x75, 0x30, 0x3c, 0x6d, 0xbb, 0x1c, 0xbc,
  0xf0, 0x2f, 0xee, 0x3d, 0xf8, 0xd8, 0x89, 0xbd, 0xd0, 0xa2, 0x41, 0xbc,
  0xb0, 0x57, 0xc6, 0xbd, 0x44, 0x85, 0xc5, 0x3e, 0xb8, 0x4f, 0x3d, 0x3d,
  0xa8, 0x35, 0xec, 0xbc, 0xe0, 0xb9, 0xa9, 0xbe, 0xda, 0x65, 0xd7, 0xbe,
  0x65, 0x8c, 0xae, 0xbe, 0xf0, 0x9f, 0x4a, 0x3e, 0x82, 0xf1, 0x5c, 0xbe,
  0x15, 0xe8, 0xfa, 0x3e, 0x2b, 0xb2, 0xca, 0xbe, 0x6d, 0xa3, 0x2d, 0xbe,
  0xc2, 0xa3, 0x09, 0xbf, 0x75, 0x59, 0x0a, 0x3f, 0x6a, 0x17, 0xc1, 0xbe,
  0x58, 0xce, 0xc5, 0xbe, 0x9e, 0xcc, 0xc6, 0x3e, 0xe7, 0x99, 0x2d, 0x3d,
  0x00, 0xe0, 0xbe, 0xbe, 0x2e, 0x94, 0x2b, 0xbf, 0x16, 0xc8, 0xca, 0xbd,
  0x4e, 0x32, 0x56, 0xbe, 0xf9, 0x12, 0x04, 0x3e, 0x17, 0x1b, 0xa4, 0xbe,
  0x66, 0x94, 0x32, 0x3e, 0xe8, 0x89, 0xcf, 0x3e, 0x31, 0x07, 0x8f, 0xbe,
  0xb7, 0xd6, 0xfa, 0x3d, 0x2d, 0xa3, 0xe6, 0x3b, 0x6e, 0xbf, 0x9b, 0x3d,
  0x6d, 0x7b, 0xfc, 0xbc, 0x0f, 0x98, 0x34, 0x3e, 0x69, 0x7b, 0x9d, 0x3e,
  0xa0, 0x14, 0x6a, 0x3e, 0x27, 0x47, 0x2d, 0x3e, 0x60, 0xac, 0x0b, 0xbe,
  0x66, 0x9b, 0x62, 0xbe, 0xd1, 0x8f, 0xfc, 0x3c, 0xf2, 0x22, 0x65, 0x3e,
  0xe7, 0xf5, 0x32, 0xbe, 0xeb, 0x2b, 0x22, 0xbc, 0x07, 0x43, 0x38, 0x3e,
  0x67, 0x31, 0xb1, 0xbd, 0xd9, 0x23, 0xc6, 0x3d, 0x49, 0x87, 0xaa, 0x3d,
  0x81, 0x11, 0xcb, 0xbd, 0x29, 0x73, 0x77, 0xbd, 0xfc, 0x68, 0xaf, 0x3e,
  0x4d, 0x18, 0x0b, 0x3e, 0xe5, 0x8f, 0x9f, 0x3b, 0x2e, 0xe1, 0x86, 0x3e,
  0x5c, 0x0a, 0xd0, 0x3d, 0x28, 0x07, 0xaa, 0xbc, 0xd6, 0x3f, 0x80, 0x3d,
  0x65, 0xfb, 0x0e, 0x3e, 0x11, 0xc3, 0x37, 0xbe, 0x42, 0xbc, 0xf2, 0x3d,
  0x0c, 0xc1, 0x2c, 0xbd, 0x9d, 0xda, 0x93, 0xbd, 0x30, 0x40, 0x82, 0xbd,
  0x74, 0xf9, 0x7b, 0x3d, 0x49, 0xe0, 0xa1, 0x3d, 0x55, 0xc9, 0xf5, 0xbd,
  0x5f, 0xb9, 0x1e, 0x3e, 0x4b, 0xe4, 0x9a, 0x3e, 0xaf, 0x7c, 0x34, 0xbe,
  0xa6, 0x1f, 0x41, 0x3d, 0xa0, 0x07, 0x0b, 0x3e, 0x2b, 0xeb, 0xda, 0xbd,
  0xa6, 0x8b, 0x1f, 0x3d, 0xf9, 0x2c, 0x15, 0x3e, 0x67, 0x91, 0xb4, 0xbe,
  0x20, 0x34, 0xcb, 0x3c, 0x3f, 0x14, 0xc7, 0xbd, 0x53, 0x3b, 0x92, 0xbe,
  0x47, 0x02, 0xa6, 0xbd, 0x8d, 0x42, 0x68, 0x3c, 0x38, 0xbc, 0xbf, 0x3d,
  0x8b, 0x7a, 0x16, 0xbe, 0xa9, 0x13, 0x94, 0x3d, 0xdf, 0x47, 0xd0, 0x3c,
  0x33, 0x2e, 0x70, 0x3d, 0xee, 0x50, 0x9a, 0xbc, 0x75, 0x15, 0xeb, 0xbd,
  0xde, 0x1a, 0x31, 0xbd, 0x79, 0x67, 0xa0, 0x3d, 0x8e, 0x27, 0xc5, 0x3d,
  0xa0, 0xe1, 0x7f, 0xbe, 0xfe, 0xde, 0xb9, 0x3d, 0xdd, 0xa7, 0x29, 0x3e,
  0xa8, 0x5c, 0x3b, 0xbe, 0xbd, 0xe7, 0x7e, 0xbd, 0x43, 0x55, 0x82, 0x3d,
  0xe6, 0x45, 0x34, 0x3e, 0x84, 0x50, 0xce, 0xbc, 0x22, 0xa3, 0x1a, 0xbc,
  0x0c, 0x0c, 0x59, 0x3e, 0x15, 0x82, 0xd8, 0x3d, 0x61, 0xd5, 0xa9, 0xbd,
  0x02, 0x7d, 0x0b, 0x3e, 0xb7, 0xd5, 0x27, 0xbe, 0xa5, 0xae, 0xde, 0x3d,
  0xd1, 0x16, 0xa8, 0xbd, 0xe7, 0xf7, 0x98, 0xbe, 0xe7, 0x3d, 0x60, 0xbd,
  0x19, 0x84, 0x9b, 0x3e, 0x20, 0x58, 0x19, 0x3e, 0xe1, 0xc4, 0xb5, 0xbd,
  0x18, 0x53, 0xcb, 0x3d, 0x91, 0x25, 0x97, 0x3c, 0x27, 0x9b, 0xc9, 0xbd,
  0xeb, 0xa9, 0x13, 0xbd, 0xf6, 0x1c, 0x9c, 0x3e, 0x92, 0x59, 0xb7, 0x3c,
  0x6a, 0x63, 0x1e, 0x3d, 0x7c, 0x4d, 0xef, 0xbe, 0x2a, 0x28, 0x0a, 0xbf,
  0x56, 0xb2, 0xe9, 0xbe, 0x8a, 0x39, 0x92, 0xbe, 0x9e, 0x26, 0xba, 0xbd,
  0x5d, 0x3f, 0x70, 0xbe, 0x63, 0xe9, 0x05, 0x3f, 0xdb, 0x8c, 0x85, 0xbe,
  0xe1, 0x1a, 0x33, 0xbe, 0xe1, 0x19, 0xbd, 0xbe, 0x46, 0x41, 0x10, 0x3f,
  0x6b, 0x59, 0xe8, 0xbe, 0xe0, 0xd1, 0x5b, 0xbe, 0x8e, 0x69, 0xae, 0x3d,
  0x73, 0x77, 0x60, 0xbd, 0xeb, 0x46, 0xaa, 0xbe, 0x57, 0x7e, 0xfd, 0xbe,
  0xdd, 0xce, 0x10, 0x3e, 0xd5, 0x25, 0xb0, 0xbe, 0x0f, 0x54, 0xb7, 0xbd,
  0x08, 0x01, 0xbd, 0xbe, 0x7c, 0xd6, 0x0b, 0x3e, 0xcd, 0x30, 0x02, 0x3f,
  0x25, 0x51, 0xbb, 0xbe, 0x34, 0x26, 0x83, 0x3e, 0x0f, 0x47, 0x04, 0xbe,
  0x93, 0x58, 0xa3, 0xbd, 0x89, 0x31, 0xa4, 0xbd, 0xac, 0xc4, 0x44, 0xbd,
  0x9b, 0x4a, 0x3a, 0x3e, 0xc9, 0x5a, 0xf6, 0x3e, 0x2e, 0x7d, 0x17, 0x3e,
  0x64, 0xfa, 0x77, 0x3d, 0x94, 0x28, 0x46, 0xbe, 0x79, 0x40, 0x86, 0x3d,
  0xad, 0x0b, 0x24, 0xbd, 0x18, 0x75, 0x57, 0xbd, 0x62, 0xe0, 0xce, 0x3d,
  0x07, 0x5a, 0x5c, 0x3d, 0x0d, 0xf9, 0xac, 0xbe, 0xd4, 0x52, 0xc3, 0xbd,
  0x36, 0x27, 0x7c, 0x3e, 0xc5, 0x20, 0x00, 0x3e, 0x22, 0x21, 0xfc, 0x3d,
  0x3a, 0xed, 0x6b, 0x3e, 0x9a, 0xa9, 0x24, 0x3e, 0x45, 0x6a, 0xd4, 0xbc,
  0xa3, 0x09, 0x9b, 0xbd, 0xb6, 0x4f, 0xad, 0x3d, 0x05, 0x45, 0xba, 0x3d,
  0xb4, 0x3f, 0xe9, 0xbd, 0xb0, 0xdc, 0x0c, 0x3e, 0x52, 0x71, 0xa3, 0xbe,
  0x2f, 0xdd, 0xd7, 0x3d, 0xf5, 0xf7, 0xcf, 0x3b, 0x48, 0x78, 0x40, 0xbe,
  0x2c, 0xe8, 0x69, 0x3c, 0xce, 0x31, 0x9e, 0x3e, 0x7d, 0x77, 0x4c, 0x3d,
  0xf9, 0xf3, 0x83, 0xbe, 0x8d, 0xa7, 0x73, 0x3e, 0xa1, 0x95, 0xdc, 0xbd,
  0xbd, 0x09, 0x87, 0xbe, 0x7f, 0x83, 0xd9, 0xbd, 0xaf, 0x8e, 0x53, 0x3e,
  0xda, 0x76, 0xf5, 0x3d, 0x0a, 0x11, 0x37, 0x3d, 0xab, 0x5c, 0x53, 0x3d,
  0xdc, 0x81, 0x83, 0xbe, 0x26, 0x68, 0x3a, 0x3e, 0xca, 0x4c, 0xe2, 0xbd,
  0xa1, 0x36, 0xdc, 0xbd, 0xca, 0x2e, 0x0f, 0x3d, 0x95, 0x3d, 0x51, 0x3e,
  0xb3, 0xa1, 0xad, 0xbe, 0xfc, 0x5e, 0x28, 0xbd, 0xe4, 0x8b, 0x9c, 0x3e,
  0xc9, 0x60, 0x8b, 0x3e, 0x37, 0xec, 0x3b, 0xbe, 0xc9, 0xf6, 0xa1, 0xbd,
  0xf8, 0x35, 0xb9, 0x3d, 0xef, 0xe1, 0xd1, 0x3c, 0x9c, 0x5f, 0xbb, 0x3d,
  0x20, 0x0b, 0x5e, 0x3d, 0x75, 0x92, 0x99, 0xbe, 0x9f, 0x91, 0xf7, 0xba,
  0x75, 0xe6, 0xa8, 0xbe, 0x4f, 0x9d, 0x2a, 0x3e, 0xab, 0xed, 0xa5, 0xbd,
  0x84, 0x40, 0x7b, 0x3d, 0xb8, 0xad, 0x75, 0xbd, 0xae, 0xd0, 0x13, 0xbd,
  0x07, 0xbb, 0x8b, 0xbd, 0x63, 0xc1, 0x9f, 0x3d, 0xf2, 0xcc, 0x0d, 0xbe,
  0x70, 0x18, 0x74, 0xbe, 0xf9, 0x5a, 0xb5, 0x3d, 0x32, 0x48, 0x85, 0xbe,
  0x1c, 0xc3, 0x08, 0x3e, 0x10, 0x79, 0xf0, 0x3d, 0x8b, 0xb6, 0x83, 0xbc,
  0x59, 0x0a, 0x96, 0x3d, 0x2b, 0x52, 0xf6, 0x3d, 0x6f, 0xae, 0x9b, 0xbd,
  0x61, 0xfa, 0x2a, 0xbe, 0x4b, 0x17, 0x8a, 0x3d, 0x11, 0x33, 0x06, 0xbe,
  0xb8, 0x1b, 0x85, 0xbb, 0x68, 0x34, 0xc4, 0xbc, 0xa8, 0xf3, 0x69, 0xbe,
  0xd8, 0xf8, 0x12, 0xbe, 0x12, 0x55, 0x04, 0xbe, 0xd3, 0xd2, 0x27, 0xbe,
  0x71, 0xe8, 0xce, 0xbd, 0x7e, 0xf1, 0x57, 0xbe, 0x92, 0xc4, 0xb0, 0x3d,
  0x11, 0x08, 0x51, 0xbd, 0x7d, 0xf2, 0x4b, 0xbe, 0xc7, 0x61, 0x6b, 0xbd,
  0x04, 0x72, 0xa0, 0xbc, 0x6e, 0x28, 0x2e, 0xbe, 0x0d, 0xcd, 0x20, 0xbe,
  0xb3, 0x03, 0x3e, 0xbd, 0x9e, 0x3b, 0x25, 0xbe, 0xf9, 0xf6, 0x0b, 0xbc,
  0x82, 0xb8, 0xb2, 0x3d, 0x7a, 0x76, 0x8d, 0xbe, 0xf9, 0x97, 0x09, 0xbe,
  0x8b, 0x8f, 0xf8, 0xbd, 0x4f, 0x8b, 0x24, 0xbd, 0x28, 0x6b, 0xc1, 0xbe,
  0x19, 0x64, 0xe0, 0xbb, 0xaa, 0x87, 0x13, 0x3e, 0x6e, 0xfa, 0xb4, 0xbd,
  0x64, 0x42, 0x5c, 0x3e, 0xb3, 0xa7, 0xf3, 0x3c, 0x3f, 0x5b, 0xcf, 0xbe,
  0x41, 0x97, 0xa8, 0x3d, 0xa6, 0xda, 0x19, 0x3e, 0x4c, 0x9b, 0x7e, 0xbd,
  0x37, 0x26, 0x9f, 0x3d, 0x18, 0xc5, 0x50, 0x3e, 0xca, 0x48, 0xab, 0x3d,
  0x93, 0x27, 0xee, 0xbd, 0xba, 0xcb, 0xf2, 0xbc, 0x98, 0x6c, 0x91, 0xbd,
  0xe6, 0x87, 0xa3, 0xbe, 0x5b, 0xd5, 0xf4, 0x3b, 0x1c, 0xc8, 0x0f, 0x3e,
  0x9d, 0x37, 0xac, 0xbe, 0x8c, 0x8b, 0xab, 0xbd, 0xd2, 0xe1, 0xb9, 0x3d,
  0xdd, 0x58, 0x4f, 0xbe, 0xbd, 0x4c, 0xbd, 0x3e, 0x3b, 0xd0, 0x1f, 0xbd,
  0x16, 0x9b, 0xf5, 0x3d, 0x2a, 0xc8, 0x19, 0xbd, 0x8d, 0x18, 0x98, 0x3e,
  0xfe, 0x3c, 0xfc, 0xbd, 0x14, 0x91, 0xf0, 0x3d, 0xb7, 0x89, 0xbe, 0xbc,
  0x2b, 0xe1, 0xeb, 0xbc, 0x6a, 0x37, 0x50, 0xbe, 0x74, 0xdb, 0xd2, 0x3c,
  0x10, 0x0e, 0x69, 0x3d, 0xeb, 0x99, 0x6e, 0xbd, 0x6b, 0xaa, 0xa8, 0x3e,
  0xd2, 0x50, 0x20, 0x3e, 0x93, 0x9e, 0xd8, 0xbd, 0xed, 0x26, 0xc4, 0xbb,
  0xaf, 0x22, 0x80, 0xbd, 0x07, 0x80, 0x84, 0xbe, 0x27, 0x42, 0x18, 0xbd,
  0xeb, 0xef, 0x51, 0x3e, 0x6e, 0xb0, 0xe8, 0xbd, 0x0a, 0xb4, 0xd7, 0xbd,
  0xbf, 0x53, 0x0f, 0x3e, 0x02, 0xa7, 0x69, 0xbd, 0x38, 0x1c, 0x53, 0xbe,
  0x42, 0x18, 0xa3, 0x3e, 0xd2, 0x2c, 0x39, 0x3d, 0x65, 0xdb, 0x6f, 0xbd,
  0xef, 0x5a, 0xa9, 0x3e, 0xfd, 0x1d, 0x10, 0xbe, 0x9b, 0xac, 0xea, 0xbd,
  0xc6, 0x1f, 0x4a, 0xbc, 0xb4, 0x0d, 0xba, 0x3e, 0xf7, 0xfe, 0x78, 0xbe,
  0xa0, 0x1f, 0x24, 0x3e, 0xba, 0x5e, 0x4c, 0x3e, 0x6e, 0x23, 0x1c, 0x3e,
  0xc0, 0x85, 0x68, 0xbd, 0xc0, 0x0c, 0xa5, 0x3d, 0x35, 0x93, 0x2e, 0xbe,
  0xe9, 0xff, 0x79, 0xbd, 0xf7, 0x63, 0xeb, 0xbd, 0x92, 0x45, 0x29, 0xbe,
  0xe0, 0x4c, 0x19, 0x3e, 0x8c, 0x76, 0x00, 0x3f, 0xbb, 0xc2, 0x03, 0xbe,
  0xb2, 0xa6, 0xc6, 0x3d, 0x2b, 0xd0, 0x99, 0xbd, 0xff, 0x0a, 0x93, 0xbd,
  0x22, 0x91, 0xa3, 0xbc, 0xba, 0x6e, 0x20, 0xbd, 0x4b, 0x4c, 0x53, 0x3e,
  0xce, 0x12, 0x82, 0x3d, 0xb3, 0x6b, 0x91, 0xbd, 0xf7, 0x5e, 0x61, 0x3c,
  0x81, 0x5b, 0x83, 0xbe, 0x9b, 0x5a, 0x7d, 0x3d, 0x06, 0x66, 0x89, 0xbe,
  0xcb, 0xe3, 0x82, 0xbe, 0x34, 0x74, 0xeb, 0x3d, 0x80, 0xdd, 0xe3, 0x3d,
  0x45, 0xff, 0x0f, 0x3e, 0xd1, 0xd8, 0x26, 0x3e, 0x95, 0xe0, 0xec, 0x3d,
  0x87, 0x4e, 0xd6, 0x3d, 0x32, 0x31, 0xd0, 0xbd, 0xaf, 0xc9, 0x81, 0x3d,
  0xf7, 0xd4, 0x87, 0x3d, 0x9e, 0x93, 0x7b, 0x3e, 0x27, 0x2c, 0x3c, 0x3e,
  0xba, 0x32, 0x6c, 0x3d, 0x4e, 0xfe, 0xff, 0xff, 0x10, 0x00, 0x00, 0x00,
  0x05, 0x00, 0x00, 0x00, 0x14, 0x00, 0x00, 0x00, 0x2c, 0x00, 0x00, 0x00,
  0x02, 0x00, 0x00, 0x00, 0x10, 0x00, 0x00, 0x00, 0x70, 0x00, 0x00, 0x00,
  0x17, 0x00, 0x00, 0x00, 0x73, 0x65, 0x71, 0x75, 0x65, 0x6e, 0x74, 0x69,
  0x61, 0x6c, 0x2f, 0x64, 0x65, 0x6e, 0x73, 0x65, 0x2f, 0x4d, 0x61, 0x74,
  0x4d, 0x75, 0x6c, 0x00, 0x3c, 0xfe, 0xff, 0xff, 0x32, 0xff, 0xff, 0xff,
  0x04, 0x00, 0x00, 0x00, 0x08, 0x00, 0x00, 0x00, 0xff, 0xff, 0xff, 0xff,
  0x70, 0x00, 0x00, 0x00, 0x00, 0x00, 0x0e, 0x00, 0x18, 0x00, 0x08, 0x00,
  0x07, 0x00, 0x0c, 0x00, 0x10, 0x00, 0x14, 0x00, 0x0e, 0x00, 0x00, 0x00,
  0x00, 0x00, 0x00, 0x02, 0x10, 0x00, 0x00, 0x00, 0x04, 0x00, 0x00, 0x00,
  0x10, 0x00, 0x00, 0x00, 0x2c, 0x00, 0x00, 0x00, 0x01, 0x00, 0x00, 0x00,
  0x02, 0x00, 0x00, 0x00, 0x18, 0x00, 0x00, 0x00, 0x73, 0x65, 0x71, 0x75,
  0x65, 0x6e, 0x74, 0x69, 0x61, 0x6c, 0x2f, 0x66, 0x6c, 0x61, 0x74, 0x74,
  0x65, 0x6e, 0x2f, 0x43, 0x6f, 0x6e, 0x73, 0x74, 0x00, 0x00, 0x00, 0x00,
  0xa4, 0xfe, 0xff, 0xff, 0x9a, 0xff, 0xff, 0xff, 0x04, 0x00, 0x00, 0x00,
  0x08, 0x00, 0x00, 0x00, 0x09, 0x8a, 0xfa, 0xbe, 0x09, 0x8a, 0xfa, 0x3e,
  0x0a, 0xff, 0xff, 0xff, 0x10, 0x00, 0x00, 0x00, 0x03, 0x00, 0x00, 0x00,
  0x10, 0x00, 0x00, 0x00, 0x3c, 0x00, 0x00, 0x00, 0x01, 0x00, 0x00, 0x00,
  0x02, 0x00, 0x00, 0x00, 0x29, 0x00, 0x00, 0x00, 0x73, 0x65, 0x71, 0x75,
  0x65, 0x6e, 0x74, 0x69, 0x61, 0x6c, 0x2f, 0x64, 0x65, 0x6e, 0x73, 0x65,
  0x5f, 0x31, 0x2f, 0x42, 0x69, 0x61, 0x73, 0x41, 0x64, 0x64, 0x2f, 0x52,
  0x65, 0x61, 0x64, 0x56, 0x61, 0x72, 0x69, 0x61, 0x62, 0x6c, 0x65, 0x4f,
  0x70, 0x00, 0x00, 0x00, 0x60, 0xff, 0xff, 0xff, 0x00, 0x00, 0x06, 0x00,
  0x08, 0x00, 0x04, 0x00, 0x06, 0x00, 0x00, 0x00, 0x04, 0x00, 0x00, 0x00,
  0x40, 0x00, 0x00, 0x00, 0xd8, 0x0f, 0xa4, 0xbe, 0xe5, 0xbe, 0xf9, 0xbc,
  0x01, 0x32, 0x85, 0xbd, 0x5c, 0x46, 0x30, 0x3f, 0x3e, 0xb0, 0x78, 0xbe,
  0x0b, 0xef, 0x16, 0xbe, 0x51, 0x94, 0xbd, 0xbe, 0x1d, 0x91, 0x3c, 0x3f,
  0x87, 0xb3, 0x38, 0xbd, 0x8e, 0xc4, 0xd1, 0xbe, 0xed, 0x23, 0x0f, 0xbf,
  0x7c, 0x19, 0x4d, 0x3f, 0x76, 0x44, 0xf0, 0xbe, 0xd4, 0x26, 0x86, 0xbd,
  0x7b, 0xd6, 0xf5, 0xbe, 0xdc, 0x16, 0x1a, 0xbe, 0xae, 0xff, 0xff, 0xff,
  0x10, 0x00, 0x00, 0x00, 0x02, 0x00, 0x00, 0x00, 0x10, 0x00, 0x00, 0x00,
  0x3c, 0x00, 0x00, 0x00, 0x01, 0x00, 0x00, 0x00, 0x10, 0x00, 0x00, 0x00,
  0x27, 0x00, 0x00, 0x00, 0x73, 0x65, 0x71, 0x75, 0x65, 0x6e, 0x74, 0x69,
  0x61, 0x6c, 0x2f, 0x64, 0x65, 0x6e, 0x73, 0x65, 0x2f, 0x42, 0x69, 0x61,
  0x73, 0x41, 0x64, 0x64, 0x2f, 0x52, 0x65, 0x61, 0x64, 0x56, 0x61, 0x72,
  0x69, 0x61, 0x62, 0x6c, 0x65, 0x4f, 0x70, 0x00, 0x04, 0x00, 0x06, 0x00,
  0x04, 0x00, 0x00, 0x00, 0x00, 0x00, 0x0e, 0x00, 0x14, 0x00, 0x04, 0x00,
  0x00, 0x00, 0x08, 0x00, 0x0c, 0x00, 0x10, 0x00, 0x0e, 0x00, 0x00, 0x00,
  0x10, 0x00, 0x00, 0x00, 0x01, 0x00, 0x00, 0x00, 0x1c, 0x00, 0x00, 0x00,
  0x2c, 0x00, 0x00, 0x00, 0x04, 0x00, 0x00, 0x00, 0x01, 0x00, 0x00, 0x00,
  0x40, 0x00, 0x00, 0x00, 0x03, 0x00, 0x00, 0x00, 0x01, 0x00, 0x00, 0x00,
  0x0c, 0x00, 0x00, 0x00, 0x63, 0x6f, 0x6e, 0x76, 0x32, 0x64, 0x5f, 0x69,
  0x6e, 0x70, 0x75, 0x74, 0x00, 0x00, 0x00, 0x00, 0xfc, 0xff, 0xff, 0xff,
  0x04, 0x00, 0x04, 0x00, 0x04, 0x00, 0x00, 0x00
};
unsigned int model_tflite_len = 12248;

